#include <TensorFlowLite.h>
#include <cstddef>

const unsigned char model[] = {
  0x20, 0x00, 0x00, 0x00, 0x54, 0x46, 0x4c, 0x33, 0x00, 0x00, 0x00, 0x00,
  0x14, 0x00, 0x20, 0x00, 0x1c, 0x00, 0x18, 0x00, 0x14, 0x00, 0x10, 0x00,
  0x0c, 0x00, 0x00, 0x00, 0x08, 0x00, 0x04, 0x00, 0x14, 0x00, 0x00, 0x00,
  0x1c, 0x00, 0x00, 0x00, 0x94, 0x00, 0x00, 0x00, 0xec, 0x00, 0x00, 0x00,
  0x04, 0x18, 0x00, 0x00, 0x14, 0x18, 0x00, 0x00, 0x68, 0x21, 0x00, 0x00,
  0x03, 0x00, 0x00, 0x00, 0x01, 0x00, 0x00, 0x00, 0x10, 0x00, 0x00, 0x00,
  0x00, 0x00, 0x0a, 0x00, 0x10, 0x00, 0x0c, 0x00, 0x08, 0x00, 0x04, 0x00,
  0x0a, 0x00, 0x00, 0x00, 0x0c, 0x00, 0x00, 0x00, 0x1c, 0x00, 0x00, 0x00,
  0x3c, 0x00, 0x00, 0x00, 0x0f, 0x00, 0x00, 0x00, 0x73, 0x65, 0x72, 0x76,
  0x69, 0x6e, 0x67, 0x5f, 0x64, 0x65, 0x66, 0x61, 0x75, 0x6c, 0x74, 0x00,
  0x01, 0x00, 0x00, 0x00, 0x04, 0x00, 0x00, 0x00, 0x94, 0xff, 0xff, 0xff,
  0x0d, 0x00, 0x00, 0x00, 0x04, 0x00, 0x00, 0x00, 0x08, 0x00, 0x00, 0x00,
  0x6f, 0x75, 0x74, 0x70, 0x75, 0x74, 0x5f, 0x30, 0x00, 0x00, 0x00, 0x00,
  0x01, 0x00, 0x00, 0x00, 0x04, 0x00, 0x00, 0x00, 0xde, 0xe7, 0xff, 0xff,
  0x04, 0x00, 0x00, 0x00, 0x0b, 0x00, 0x00, 0x00, 0x69, 0x6e, 0x70, 0x75,
  0x74, 0x5f, 0x6c, 0x61, 0x79, 0x65, 0x72, 0x00, 0x02, 0x00, 0x00, 0x00,
  0x34, 0x00, 0x00, 0x00, 0x04, 0x00, 0x00, 0x00, 0xdc, 0xff, 0xff, 0xff,
  0x10, 0x00, 0x00, 0x00, 0x04, 0x00, 0x00, 0x00, 0x13, 0x00, 0x00, 0x00,
  0x43, 0x4f, 0x4e, 0x56, 0x45, 0x52, 0x53, 0x49, 0x4f, 0x4e, 0x5f, 0x4d,
  0x45, 0x54, 0x41, 0x44, 0x41, 0x54, 0x41, 0x00, 0x08, 0x00, 0x0c, 0x00,
  0x08, 0x00, 0x04, 0x00, 0x08, 0x00, 0x00, 0x00, 0x0f, 0x00, 0x00, 0x00,
  0x04, 0x00, 0x00, 0x00, 0x13, 0x00, 0x00, 0x00, 0x6d, 0x69, 0x6e, 0x5f,
  0x72, 0x75, 0x6e, 0x74, 0x69, 0x6d, 0x65, 0x5f, 0x76, 0x65, 0x72, 0x73,
  0x69, 0x6f, 0x6e, 0x00, 0x11, 0x00, 0x00, 0x00, 0x14, 0x17, 0x00, 0x00,
  0x0c, 0x17, 0x00, 0x00, 0xfc, 0x13, 0x00, 0x00, 0xec, 0x12, 0x00, 0x00,
  0xcc, 0x12, 0x00, 0x00, 0xbc, 0x11, 0x00, 0x00, 0x2c, 0x11, 0x00, 0x00,
  0x1c, 0x09, 0x00, 0x00, 0xcc, 0x08, 0x00, 0x00, 0xbc, 0x00, 0x00, 0x00,
  0xb4, 0x00, 0x00, 0x00, 0xac, 0x00, 0x00, 0x00, 0xa4, 0x00, 0x00, 0x00,
  0x9c, 0x00, 0x00, 0x00, 0x94, 0x00, 0x00, 0x00, 0x74, 0x00, 0x00, 0x00,
  0x04, 0x00, 0x00, 0x00, 0x9a, 0xe8, 0xff, 0xff, 0x04, 0x00, 0x00, 0x00,
  0x60, 0x00, 0x00, 0x00, 0x0c, 0x00, 0x00, 0x00, 0x08, 0x00, 0x0e, 0x00,
  0x08, 0x00, 0x04, 0x00, 0x08, 0x00, 0x00, 0x00, 0x10, 0x00, 0x00, 0x00,
  0x28, 0x00, 0x00, 0x00, 0x00, 0x00, 0x06, 0x00, 0x08, 0x00, 0x04, 0x00,
  0x06, 0x00, 0x00, 0x00, 0x04, 0x00, 0x00, 0x00, 0x01, 0x00, 0x00, 0x00,
  0xea, 0x03, 0x00, 0x00, 0x0c, 0x00, 0x18, 0x00, 0x14, 0x00, 0x10, 0x00,
  0x0c, 0x00, 0x04, 0x00, 0x0c, 0x00, 0x00, 0x00, 0x9a, 0x8c, 0x7b, 0xc3,
  0x52, 0xb3, 0x54, 0x69, 0x02, 0x00, 0x00, 0x00, 0x02, 0x00, 0x00, 0x00,
  0x04, 0x00, 0x00, 0x00, 0x06, 0x00, 0x00, 0x00, 0x32, 0x2e, 0x31, 0x38,
  0x2e, 0x30, 0x00, 0x00, 0x06, 0xe9, 0xff, 0xff, 0x04, 0x00, 0x00, 0x00,
  0x10, 0x00, 0x00, 0x00, 0x32, 0x2e, 0x31, 0x37, 0x2e, 0x30, 0x00, 0x00,
  0x00, 0x00, 0x00, 0x00, 0x00, 0x00, 0x00, 0x00, 0x80, 0xe0, 0xff, 0xff,
  0x84, 0xe0, 0xff, 0xff, 0x88, 0xe0, 0xff, 0xff, 0x8c, 0xe0, 0xff, 0xff,
  0x90, 0xe0, 0xff, 0xff, 0x36, 0xe9, 0xff, 0xff, 0x04, 0x00, 0x00, 0x00,
  0x00, 0x08, 0x00, 0x00, 0xf5, 0xff, 0x08, 0xf2, 0xfb, 0x05, 0x00, 0xef,
  0xfc, 0xff, 0xff, 0xf8, 0x02, 0xfd, 0x04, 0x09, 0xdc, 0xfb, 0x01, 0x07,
  0xfc, 0xf1, 0x04, 0xf9, 0xfb, 0xfb, 0xfd, 0x03, 0xff, 0xc5, 0xfa, 0x05,
  0xfd, 0xc5, 0xf4, 0x09, 0xfa, 0xfd, 0xfd, 0x08, 0x03, 0xc5, 0xfb, 0xda,
  0x04, 0x03, 0xff, 0x03, 0x05, 0x06, 0xfc, 0xff, 0xf7, 0xfb, 0xfd, 0x02,
  0xf4, 0xfa, 0xfe, 0x81, 0x02, 0x06, 0xf8, 0x06, 0x05, 0x02, 0x0e, 0x02,
  0x08, 0x0b, 0xf9, 0xf7, 0xff, 0x0f, 0x0b, 0x06, 0xf6, 0x01, 0xfe, 0xfd,
  0x0f, 0x05, 0xf8, 0xf9, 0xf6, 0x0f, 0xf6, 0x09, 0x0a, 0x0b, 0x02, 0x08,
  0xf1, 0x2c, 0xeb, 0x0b, 0x7f, 0x38, 0xff, 0x08, 0x00, 0x00, 0xfe, 0xf9,
  0x06, 0x1f, 0xfc, 0xdd, 0x06, 0xff, 0x08, 0xfb, 0x02, 0x04, 0xf2, 0x07,
  0xfe, 0x08, 0x04, 0xe8, 0x03, 0x11, 0x03, 0x3f, 0x0f, 0x01, 0x08, 0x05,
  0x00, 0xef, 0x08, 0xea, 0xf4, 0x0e, 0xf3, 0xf6, 0xf1, 0x08, 0x02, 0x0f,
  0xfc, 0xf3, 0x0c, 0x13, 0x0b, 0xfa, 0x0b, 0x10, 0x00, 0x18, 0xee, 0xf0,
  0x00, 0x17, 0xff, 0x0b, 0x00, 0xf0, 0xe4, 0x0d, 0x68, 0x2c, 0x01, 0x09,
  0xf3, 0x0c, 0xf4, 0x1f, 0x04, 0xba, 0x02, 0x81, 0x07, 0xfd, 0xf7, 0x05,
  0x0e, 0x0d, 0xfb, 0xf4, 0xf1, 0x03, 0xfd, 0x1f, 0x23, 0x13, 0x11, 0xdc,
  0x12, 0xf4, 0xf9, 0xf0, 0x13, 0xf8, 0xf3, 0xec, 0x01, 0xfa, 0x0c, 0xf7,
  0xf5, 0xf7, 0xf5, 0x02, 0xfd, 0xf8, 0xf4, 0x07, 0xee, 0xfa, 0x06, 0xfa,
  0x05, 0x02, 0x02, 0xfe, 0x08, 0x00, 0x00, 0xf6, 0xe7, 0x66, 0xf6, 0x07,
  0x81, 0x0e, 0x07, 0xf4, 0xef, 0xf7, 0x05, 0x0a, 0x04, 0xb4, 0x03, 0x9a,
  0x02, 0x08, 0xf7, 0xf8, 0xfb, 0xff, 0x06, 0x01, 0xfb, 0xf8, 0xfd, 0xfa,
  0x11, 0xfa, 0x12, 0x85, 0xf4, 0x07, 0xf8, 0xfc, 0xf3, 0xf5, 0xfb, 0xf5,
  0xfa, 0x07, 0x02, 0xea, 0x02, 0x07, 0x01, 0xfa, 0x0e, 0xf9, 0x01, 0xf5,
  0xee, 0xf8, 0x09, 0xf3, 0xff, 0x0f, 0xff, 0x02, 0x07, 0x05, 0x07, 0x0b,
  0xfb, 0xea, 0xfe, 0xed, 0xb1, 0xe9, 0x07, 0xf9, 0xfe, 0x08, 0x04, 0xfb,
  0x06, 0xc7, 0x01, 0xf0, 0x00, 0xfb, 0xfe, 0x01, 0xfb, 0xf9, 0x0d, 0x01,
  0x06, 0x06, 0xf5, 0x0d, 0xfe, 0x06, 0x05, 0x81, 0xf3, 0xf6, 0x02, 0xf4,
  0x0b, 0xf1, 0x19, 0x11, 0x18, 0x18, 0xf8, 0xf7, 0xf3, 0xe5, 0x04, 0x1d,
  0x04, 0x12, 0x01, 0x0d, 0x04, 0x0b, 0x04, 0xf4, 0x10, 0x22, 0x00, 0xf4,
  0xfb, 0xf6, 0x06, 0x04, 0x04, 0x1e, 0xfd, 0x14, 0x67, 0x4e, 0xfd, 0x16,
  0xff, 0x02, 0xec, 0x20, 0xee, 0x92, 0x0b, 0x45, 0xf6, 0xff, 0x0a, 0x07,
  0xfb, 0x06, 0xe9, 0x14, 0x03, 0xf1, 0x1e, 0xd7, 0xf6, 0xf6, 0x02, 0x7f,
  0x1d, 0xfb, 0x11, 0x07, 0x0e, 0x0c, 0x10, 0xff, 0xfc, 0x10, 0xf7, 0xff,
  0x0a, 0x0e, 0xfa, 0xff, 0x0d, 0x0b, 0xfc, 0xf5, 0xe5, 0x06, 0x05, 0xf1,
  0x0d, 0x19, 0x0d, 0x07, 0x09, 0x00, 0x02, 0xf5, 0x13, 0x33, 0x0a, 0xf1,
  0x0f, 0x49, 0x08, 0x0a, 0x0c, 0x13, 0x09, 0x22, 0xfc, 0x4a, 0xfe, 0x3b,
  0x0a, 0x02, 0x09, 0xfd, 0x0b, 0xfb, 0xff, 0x0b, 0xfc, 0xf6, 0x17, 0xfd,
  0xeb, 0xf5, 0x0c, 0x7f, 0xf6, 0xff, 0x08, 0xef, 0x1a, 0xfb, 0x0a, 0xf3,
  0x0e, 0xfe, 0x03, 0xf5, 0x03, 0xfd, 0xf0, 0xf8, 0xef, 0x02, 0xf9, 0x04,
  0xed, 0x04, 0x06, 0x05, 0x04, 0x0f, 0xfe, 0xf5, 0xfa, 0xfc, 0xef, 0xff,
  0xf8, 0xbf, 0xf9, 0xff, 0xe4, 0xfe, 0xf7, 0x03, 0x08, 0x09, 0xf2, 0x07,
  0xf9, 0xb1, 0x00, 0x81, 0xfe, 0xf6, 0xf4, 0xfc, 0x00, 0x03, 0x04, 0x05,
  0x01, 0xf7, 0xff, 0xfe, 0x00, 0x03, 0x00, 0xae, 0xfe, 0x04, 0x05, 0xfd,
  0x02, 0x12, 0xed, 0xfa, 0xfe, 0xfd, 0x01, 0x00, 0x07, 0xe9, 0xf3, 0xfc,
  0xfd, 0xfa, 0x09, 0x02, 0x08, 0xf8, 0xfe, 0xf3, 0x07, 0xda, 0x01, 0x00,
  0xf5, 0x0e, 0xfb, 0xfd, 0x08, 0xe5, 0xff, 0x0b, 0x81, 0xdf, 0xfb, 0x03,
  0x01, 0xfb, 0x00, 0xf4, 0x07, 0x25, 0xff, 0xc7, 0x0a, 0xf6, 0xf7, 0xfc,
  0x03, 0x02, 0x06, 0x04, 0xfb, 0x02, 0xe8, 0x26, 0xf3, 0xf0, 0xf1, 0x9b,
  0xf9, 0xf7, 0xff, 0x0e, 0xf8, 0xfc, 0xfa, 0xfd, 0xfb, 0x00, 0xff, 0x00,
  0x01, 0x03, 0x00, 0xfe, 0xf9, 0x03, 0xfc, 0xf8, 0xf7, 0x02, 0x04, 0xff,
  0x03, 0x07, 0x02, 0xfe, 0x02, 0x02, 0xfc, 0x04, 0xfb, 0xd7, 0x07, 0x05,
  0x20, 0xe7, 0x04, 0x04, 0xfb, 0xfc, 0x02, 0x0b, 0x00, 0x19, 0xfe, 0x81,
  0xfb, 0x01, 0x06, 0xfd, 0xfd, 0xfd, 0x07, 0x04, 0x02, 0xff, 0xfe, 0xf4,
  0xf6, 0xfb, 0x04, 0xe0, 0x07, 0x04, 0xff, 0xfd, 0xee, 0xf2, 0x0b, 0xf0,
  0xff, 0xf4, 0x05, 0x0a, 0x04, 0xf2, 0xfd, 0x10, 0xf6, 0xf9, 0x05, 0xf8,
  0x11, 0xfd, 0x08, 0x09, 0xfe, 0x16, 0xfd, 0x03, 0x06, 0x06, 0xfe, 0xf7,
  0x01, 0x81, 0xfa, 0xe8, 0x91, 0x03, 0xfc, 0x01, 0xf5, 0xfc, 0x05, 0x19,
  0xfc, 0x01, 0x01, 0xd2, 0x09, 0x09, 0x03, 0xfc, 0xf9, 0x05, 0x04, 0xfd,
  0xf9, 0x03, 0xfe, 0xf8, 0xf2, 0x00, 0xf8, 0x96, 0xe5, 0xf5, 0xfa, 0xff,
  0xbd, 0x08, 0x0a, 0xd8, 0xc4, 0xe7, 0x08, 0xd9, 0x0b, 0x2b, 0xe5, 0xcc,
  0xfc, 0xfa, 0xec, 0xf7, 0x37, 0xf7, 0x0d, 0x00, 0xf5, 0x04, 0xd6, 0x02,
  0x08, 0x17, 0x05, 0xfe, 0x2e, 0xbb, 0xeb, 0xea, 0x35, 0xe9, 0xff, 0xd9,
  0xfb, 0xeb, 0xd3, 0x29, 0xf8, 0x11, 0x0d, 0x7f, 0x09, 0xf5, 0x30, 0xf8,
  0xe7, 0xef, 0x17, 0xf3, 0xe6, 0x02, 0x27, 0x08, 0x0e, 0x1a, 0xe4, 0xdf,
  0xe3, 0xf9, 0x16, 0x0f, 0xdd, 0xe2, 0x0c, 0xe4, 0xe9, 0xf8, 0xef, 0x1f,
  0xef, 0xf9, 0x0a, 0xff, 0xf3, 0xfd, 0xf7, 0xed, 0xf1, 0xff, 0x0f, 0x20,
  0xff, 0x21, 0xed, 0x11, 0xf2, 0x0d, 0xff, 0x00, 0xef, 0xd0, 0xdd, 0xf9,
  0x81, 0x46, 0xfa, 0x1a, 0xf0, 0x11, 0x07, 0x04, 0xff, 0xd9, 0x01, 0x36,
  0xf5, 0xee, 0xfd, 0x05, 0xf9, 0xf5, 0x13, 0xe3, 0xf0, 0x0b, 0x18, 0xef,
  0x18, 0xf1, 0x04, 0xe3, 0xed, 0x06, 0x0c, 0x02, 0x09, 0x00, 0x08, 0x1d,
  0xf0, 0xf8, 0x07, 0xe0, 0xf0, 0x0e, 0x0a, 0xe8, 0xe3, 0x0f, 0x0d, 0xf4,
  0x08, 0x01, 0x02, 0x0c, 0x00, 0x1e, 0xfb, 0xeb, 0xf0, 0xfa, 0x05, 0x16,
  0x1a, 0xb8, 0x01, 0xdb, 0x95, 0x97, 0xf7, 0xf1, 0x05, 0x06, 0xe2, 0x37,
  0xf2, 0x76, 0x0e, 0x81, 0x04, 0x06, 0x01, 0x05, 0x03, 0x11, 0x05, 0xe1,
  0xfe, 0x11, 0xf4, 0xe8, 0xdc, 0x03, 0x11, 0x99, 0xf8, 0xfa, 0xfe, 0x15,
  0xb8, 0xf8, 0xf7, 0x35, 0xf6, 0xf4, 0x00, 0x0b, 0x20, 0x2c, 0xfe, 0x1d,
  0xee, 0x12, 0x1e, 0x1a, 0x14, 0x03, 0x01, 0xe3, 0x01, 0x15, 0x00, 0x02,
  0xf9, 0xee, 0xeb, 0x1c, 0x02, 0x2a, 0xe9, 0xee, 0x7f, 0x3f, 0xf7, 0xe1,
  0xf9, 0x03, 0x13, 0x02, 0x1c, 0x62, 0x19, 0xfd, 0x0b, 0xe7, 0xff, 0x09,
  0x28, 0xfc, 0xf9, 0x23, 0x15, 0x0e, 0xef, 0xc1, 0x23, 0x1e, 0x24, 0x44,
  0xe8, 0xfc, 0xd7, 0xfd, 0x19, 0x1a, 0x06, 0x04, 0x12, 0xf5, 0xff, 0x2a,
  0x08, 0x10, 0x0e, 0x03, 0x22, 0x12, 0xf8, 0xef, 0x09, 0xfb, 0x0c, 0x19,
  0xec, 0xeb, 0x0b, 0x0f, 0xfb, 0xf1, 0x13, 0x00, 0x0f, 0x36, 0xf1, 0xf1,
  0x1d, 0x56, 0x10, 0x13, 0xf1, 0x07, 0x03, 0xf6, 0x0c, 0x00, 0xf4, 0x7f,
  0x03, 0xf7, 0x1e, 0xf5, 0x04, 0xff, 0xe3, 0x03, 0x06, 0xf0, 0xfa, 0xf8,
  0xe6, 0xfb, 0x12, 0x47, 0x16, 0xfd, 0x03, 0x19, 0x08, 0xfa, 0x0e, 0xf1,
  0x12, 0xfa, 0x02, 0xfe, 0xfd, 0xf7, 0xfb, 0xf2, 0xfd, 0x00, 0xfd, 0x03,
  0xcf, 0x03, 0x06, 0xfd, 0xf8, 0xf2, 0xf0, 0x04, 0xfb, 0xff, 0xfe, 0xfe,
  0x05, 0x81, 0xf3, 0x00, 0xa0, 0x37, 0xfe, 0x03, 0xfe, 0x03, 0xf4, 0x08,
  0x04, 0x1b, 0x06, 0x34, 0x04, 0x01, 0x03, 0x04, 0x02, 0xfa, 0x09, 0xfc,
  0xf5, 0x09, 0x04, 0xed, 0xfe, 0xfb, 0xf4, 0x56, 0xee, 0x00, 0xfc, 0x01,
  0xea, 0xee, 0x13, 0x02, 0xfb, 0x02, 0x07, 0x03, 0xf5, 0x0e, 0xfa, 0xe7,
  0x02, 0x08, 0x0a, 0x09, 0xf5, 0x05, 0x07, 0x0f, 0x0a, 0xf5, 0xd5, 0x02,
  0xff, 0x04, 0xfe, 0xfb, 0x05, 0xbd, 0xea, 0xff, 0x7f, 0xaf, 0xff, 0xf8,
  0x08, 0x01, 0xe3, 0x0f, 0x06, 0xc5, 0x07, 0xe1, 0x0c, 0x03, 0x10, 0x03,
  0x0a, 0xf7, 0x00, 0xec, 0x04, 0x00, 0x16, 0x05, 0xf3, 0xfb, 0x02, 0xde,
  0xfd, 0xf6, 0xfe, 0xf6, 0xfc, 0x07, 0xf3, 0xfb, 0xf9, 0xf8, 0x03, 0xf1,
  0x0c, 0xf6, 0x00, 0xf7, 0x15, 0xfb, 0x08, 0xf5, 0xf2, 0x06, 0x0a, 0xfc,
  0x02, 0x12, 0xee, 0xf9, 0xf8, 0xf4, 0x03, 0x05, 0x0f, 0x06, 0x10, 0x0d,
  0x57, 0x17, 0xff, 0x09, 0x0e, 0xf6, 0xf4, 0xea, 0xfb, 0x3d, 0x06, 0x81,
  0x0d, 0x04, 0x06, 0x07, 0x0a, 0x00, 0xf4, 0xfa, 0xfc, 0xf8, 0x0b, 0xfd,
  0xeb, 0x01, 0xf9, 0xba, 0x0e, 0xeb, 0xfd, 0xf2, 0xbc, 0xd3, 0xda, 0x03,
  0x1a, 0x27, 0xec, 0x2c, 0xeb, 0xeb, 0xf9, 0xd5, 0xda, 0xdb, 0xe0, 0x02,
  0xd9, 0xf5, 0xfe, 0xa3, 0x0b, 0x37, 0x18, 0xef, 0x10, 0x18, 0xf1, 0x06,
  0xee, 0x18, 0xe7, 0xf5, 0x64, 0xb1, 0x23, 0xea, 0x0f, 0x0f, 0x12, 0xd3,
  0xef, 0x2f, 0x03, 0x81, 0xff, 0xe0, 0x18, 0x02, 0x0e, 0x11, 0x1e, 0xec,
  0x2f, 0xf5, 0xd8, 0x43, 0xf1, 0xf5, 0x19, 0xc7, 0xee, 0x21, 0x22, 0x09,
  0x02, 0xea, 0x17, 0x18, 0xfb, 0x13, 0x12, 0xf2, 0xfa, 0xef, 0x02, 0x16,
  0x0d, 0xf9, 0xfb, 0x01, 0x02, 0xff, 0xf7, 0xf7, 0x0b, 0x11, 0xf9, 0xfc,
  0xf7, 0x23, 0x00, 0x0e, 0xf9, 0x7f, 0xdd, 0x05, 0x08, 0xe4, 0x10, 0x24,
  0x15, 0x14, 0xf8, 0xf3, 0xe8, 0xe8, 0x04, 0xd3, 0x17, 0x11, 0x09, 0xfe,
  0xfc, 0xf3, 0x0b, 0x01, 0x0f, 0xec, 0x11, 0xea, 0x3c, 0x23, 0x24, 0xed,
  0x06, 0x05, 0xec, 0xe1, 0x24, 0x03, 0xf5, 0xf5, 0xf7, 0xf7, 0x08, 0x04,
  0xfc, 0x0d, 0x06, 0x05, 0xf4, 0x07, 0xfe, 0x07, 0xf3, 0x04, 0x08, 0x06,
  0x04, 0x14, 0x03, 0xf7, 0xf9, 0x02, 0xf2, 0xf5, 0xf3, 0x0e, 0xee, 0x03,
  0x50, 0x2b, 0xf9, 0x04, 0x02, 0xfd, 0x0e, 0xff, 0x05, 0xce, 0x00, 0x81,
  0xfa, 0xfa, 0x08, 0xf9, 0xfa, 0xfe, 0xf8, 0x10, 0x0c, 0x01, 0xf9, 0x0c,
  0xfc, 0x0c, 0x0d, 0xa9, 0x0f, 0xf7, 0xf5, 0xfe, 0xe1, 0xfa, 0x11, 0xeb,
  0xfd, 0xd2, 0xf4, 0x28, 0xf2, 0xf3, 0x07, 0x04, 0x05, 0xf7, 0x18, 0x15,
  0x04, 0xf7, 0x05, 0x08, 0x17, 0x07, 0xf6, 0x1d, 0xfe, 0xfd, 0x18, 0xea,
  0x05, 0x81, 0x2b, 0xf0, 0x7f, 0x11, 0xe7, 0xef, 0xdd, 0xfa, 0x09, 0xd1,
  0xf3, 0x20, 0x03, 0x72, 0x04, 0x0f, 0xfe, 0x0a, 0x1a, 0x03, 0xf2, 0x00,
  0x08, 0x0d, 0x1a, 0xde, 0xf6, 0xfa, 0xf5, 0xc4, 0xe6, 0xeb, 0x0d, 0x02,
  0xf3, 0x00, 0xf9, 0x01, 0x03, 0x00, 0x04, 0xfd, 0x02, 0x05, 0xfe, 0x00,
  0xfb, 0xfe, 0x03, 0x01, 0xf8, 0xfd, 0x02, 0xff, 0x02, 0xf8, 0x00, 0x00,
  0x01, 0x01, 0x01, 0x00, 0x04, 0xfd, 0x04, 0x03, 0x18, 0xd4, 0xff, 0xff,
  0x00, 0x03, 0x00, 0xfd, 0xff, 0xf5, 0xff, 0x81, 0xfe, 0x01, 0xfe, 0x02,
  0x03, 0xff, 0x01, 0xfd, 0x03, 0x01, 0x04, 0xf5, 0xfb, 0x03, 0xfd, 0xd8,
  0x03, 0x01, 0xfc, 0x00, 0x06, 0xf9, 0x07, 0x01, 0xfc, 0x02, 0xfc, 0xfa,
  0x02, 0x05, 0xfb, 0xfd, 0x07, 0x03, 0x02, 0x06, 0xf2, 0x00, 0x04, 0xfd,
  0xf8, 0x06, 0x03, 0x0b, 0xfc, 0x0a, 0x04, 0xf9, 0xf9, 0xd7, 0x06, 0x02,
  0x0a, 0x22, 0x04, 0xf6, 0xf6, 0xfe, 0xf8, 0x04, 0x02, 0xc7, 0xfc, 0x7f,
  0xfd, 0x09, 0x01, 0xfa, 0xf8, 0xfd, 0xf6, 0xf7, 0x05, 0x07, 0x00, 0x0d,
  0xe8, 0x02, 0x0b, 0x44, 0x08, 0xff, 0xfc, 0x02, 0x34, 0xec, 0xf7, 0x12,
  0x00, 0x05, 0xf6, 0x06, 0xf3, 0x06, 0xf6, 0x15, 0xef, 0xff, 0x03, 0xfd,
  0xea, 0xfc, 0xf8, 0xff, 0x05, 0x14, 0x05, 0x01, 0x0b, 0x09, 0x05, 0xf3,
  0xf7, 0xf4, 0xfc, 0xf4, 0x7f, 0x16, 0x08, 0xf9, 0x08, 0xf4, 0x13, 0x00,
  0x01, 0xe4, 0x0a, 0x2f, 0x0b, 0xf7, 0xf0, 0x07, 0x08, 0xfd, 0x0c, 0x12,
  0xf7, 0x09, 0x09, 0x05, 0xea, 0xf3, 0xed, 0x66, 0x0c, 0x01, 0x08, 0xf5,
  0x9b, 0x11, 0xe7, 0x05, 0x09, 0xf9, 0xf6, 0x0f, 0x12, 0xe7, 0x05, 0x19,
  0xdd, 0x05, 0x12, 0xec, 0xe2, 0xf7, 0xef, 0xf3, 0xf0, 0xd2, 0x2a, 0xf5,
  0x05, 0xea, 0xfd, 0x03, 0xd4, 0x54, 0xdb, 0x13, 0x18, 0x4e, 0x06, 0x20,
  0xf0, 0x05, 0xf4, 0xf8, 0xfb, 0x8b, 0x04, 0x7f, 0x08, 0x03, 0xfa, 0xf9,
  0xf2, 0x07, 0x04, 0xf1, 0x06, 0x0b, 0xf2, 0xe4, 0xec, 0xf7, 0xe4, 0x32,
  0x09, 0x1d, 0xea, 0xfa, 0x07, 0x0a, 0xf6, 0xfc, 0xe7, 0x07, 0x0c, 0x08,
  0xf9, 0xf7, 0xf4, 0x05, 0x12, 0x0c, 0xfc, 0xff, 0xe8, 0xfc, 0xfe, 0xfe,
  0xf4, 0x00, 0xfd, 0x05, 0xfb, 0xfb, 0xfb, 0x05, 0x05, 0x18, 0x0f, 0x02,
  0x7f, 0xef, 0x09, 0xee, 0xe7, 0xf7, 0xf5, 0x14, 0x03, 0x1d, 0x0a, 0x48,
  0xff, 0x01, 0x18, 0xf7, 0x05, 0x04, 0xfa, 0xef, 0xed, 0xf7, 0x04, 0x1c,
  0x26, 0xf6, 0x0c, 0xa8, 0xf2, 0xf4, 0x00, 0xf5, 0x02, 0xf5, 0xfa, 0x10,
  0xf6, 0x04, 0x08, 0xf2, 0xf0, 0xfb, 0x03, 0xd6, 0xe3, 0x09, 0xf2, 0x0d,
  0xd9, 0xfa, 0x0b, 0xf1, 0xfe, 0x0d, 0x81, 0xd2, 0xf3, 0xf9, 0x03, 0xfb,
  0xf9, 0x9c, 0x1b, 0x03, 0xf0, 0x02, 0x0b, 0x0a, 0xf3, 0x10, 0xcc, 0xf6,
  0xfd, 0xee, 0x10, 0x68, 0x0f, 0xf2, 0x01, 0xfe, 0x08, 0x0b, 0xf6, 0xb2,
  0x19, 0x0c, 0xf3, 0x0f, 0xf7, 0x10, 0xf8, 0x72, 0x0a, 0xf5, 0x00, 0xf9,
  0xdc, 0xdc, 0x0c, 0x09, 0xdc, 0x0e, 0x21, 0xcb, 0x0b, 0xb5, 0x03, 0x1d,
  0xc9, 0x10, 0xeb, 0x0b, 0xd1, 0xff, 0xef, 0xfc, 0x03, 0xe6, 0x09, 0x01,
  0x10, 0x09, 0xe5, 0xd4, 0xa8, 0x7f, 0xed, 0x15, 0xf6, 0x63, 0xe1, 0x1b,
  0x1c, 0x2e, 0x1f, 0x90, 0xef, 0xf3, 0xef, 0x24, 0xef, 0x00, 0xf7, 0x0c,
  0x03, 0x1b, 0xf7, 0xe4, 0x07, 0x02, 0xf0, 0xdf, 0x2b, 0xf4, 0x0a, 0xd4,
  0xcf, 0xd9, 0xe3, 0xf7, 0x12, 0xf5, 0x0d, 0x03, 0xfd, 0x01, 0x06, 0x1a,
  0x04, 0x0b, 0x0b, 0xf4, 0xf2, 0xf6, 0xff, 0x02, 0x03, 0xfc, 0x03, 0x09,
  0x0c, 0x19, 0x04, 0xff, 0x08, 0xff, 0x00, 0xfc, 0x13, 0xda, 0xe5, 0x08,
  0xf2, 0x00, 0xfe, 0x0e, 0x08, 0x06, 0x01, 0x0e, 0xf5, 0xd5, 0xff, 0x7f,
  0xf7, 0x00, 0x00, 0xfd, 0xfc, 0x0a, 0xf8, 0xf4, 0x00, 0xfe, 0x04, 0x08,
  0xf8, 0x00, 0x06, 0x30, 0x03, 0x08, 0x09, 0xf4, 0x13, 0x06, 0xeb, 0x08,
  0x08, 0xf5, 0x06, 0xf7, 0x07, 0x08, 0x03, 0x09, 0x01, 0xf4, 0x07, 0xf5,
  0x03, 0xfb, 0x08, 0x16, 0x09, 0xf2, 0xfd, 0xfa, 0x01, 0xf1, 0xff, 0x04,
  0xff, 0xbf, 0xf5, 0xef, 0x7f, 0x02, 0xf4, 0xfa, 0x00, 0xfc, 0xfc, 0xfe,
  0x0c, 0xe3, 0x06, 0xd0, 0xfe, 0x08, 0x09, 0xf7, 0x08, 0x00, 0x06, 0x04,
  0xfc, 0xf9, 0xf1, 0xe6, 0x1a, 0xf2, 0x01, 0x60, 0x12, 0x03, 0x00, 0x03,
  0x42, 0xf1, 0xff, 0xff, 0x04, 0x00, 0x00, 0x00, 0x40, 0x00, 0x00, 0x00,
  0x33, 0x2a, 0x92, 0x3f, 0x0b, 0x54, 0xc4, 0x3f, 0x1c, 0x3c, 0x01, 0x40,
  0x83, 0x4a, 0xe3, 0x3f, 0x93, 0x56, 0x75, 0x3f, 0xb8, 0x56, 0x0f, 0xbf,
  0xf5, 0xb1, 0x27, 0xbe, 0x34, 0xd8, 0x1b, 0x3f, 0xd7, 0xf9, 0x10, 0x3e,
  0x1f, 0x96, 0xb8, 0xbd, 0x73, 0x1c, 0x8e, 0x3f, 0xb2, 0x15, 0x2a, 0x40,
  0x04, 0x9f, 0xb2, 0x3f, 0xa5, 0x38, 0x80, 0xbe, 0x16, 0xb7, 0x2a, 0xbf,
  0xa8, 0x00, 0x9c, 0xbf, 0x8e, 0xf1, 0xff, 0xff, 0x04, 0x00, 0x00, 0x00,
  0x00, 0x08, 0x00, 0x00, 0x6e, 0x9c, 0x16, 0x3f, 0x07, 0x74, 0xc1, 0xbe,
  0x14, 0xa2, 0x54, 0xbe, 0x15, 0x8a, 0x87, 0x3e, 0x13, 0xad, 0xb9, 0xbe,
  0x9a, 0x44, 0xba, 0x3d, 0x22, 0x32, 0x70, 0x3c, 0x3e, 0x76, 0x5e, 0x3e,
  0x20, 0x1d, 0x92, 0xbe, 0xeb, 0x7a, 0x0c, 0xbe, 0xed, 0x01, 0x3b, 0x3e,
  0xe7, 0xb2, 0x63, 0x3d, 0x92, 0x80, 0x69, 0x3e, 0x1e, 0xe7, 0x6b, 0x3e,
  0x68, 0xb0, 0x06, 0xbe, 0x03, 0x05, 0x64, 0xbd, 0xf4, 0xcf, 0xfc, 0x3e,
  0xc4, 0xd1, 0x3f, 0x3e, 0xd5, 0xf3, 0x4b, 0x3e, 0xf6, 0xae, 0x81, 0xbe,
  0x73, 0x2c, 0x2f, 0x3d, 0xca, 0xd4, 0x09, 0xbe, 0xdc, 0x64, 0x97, 0xbe,
  0x47, 0x9a, 0x39, 0xbf, 0xd6, 0xf7, 0x0a, 0x3e, 0xf1, 0xfd, 0x78, 0xbd,
  0xaa, 0x40, 0x8d, 0xbc, 0x58, 0x45, 0x7b, 0xba, 0xd1, 0x5d, 0x8d, 0xbf,
  0xf9, 0xbb, 0xf9, 0xbd, 0x1d, 0x08, 0x10, 0xbe, 0x6e, 0x02, 0x93, 0xbe,
  0xfa, 0x79, 0x01, 0xbf, 0x75, 0x17, 0x3f, 0xbe, 0x6c, 0xb8, 0x90, 0xbe,
  0xbc, 0xb8, 0x3c, 0xbe, 0x03, 0xcb, 0xb5, 0xbe, 0xd7, 0x36, 0x55, 0xbe,
  0xa7, 0xd8, 0x54, 0x3d, 0xc6, 0x9a, 0x04, 0xbd, 0x8b, 0x82, 0x2c, 0xbe,
  0x67, 0xee, 0x43, 0xbe, 0xee, 0xb6, 0x93, 0x3e, 0x33, 0xa5, 0x12, 0x3e,
  0x28, 0xfe, 0xb5, 0x3d, 0x91, 0x33, 0x83, 0xbe, 0x77, 0x71, 0xac, 0xbd,
  0x07, 0xc9, 0x8f, 0xbc, 0x1c, 0x35, 0x39, 0xbf, 0x9a, 0x61, 0x35, 0xbe,
  0x9f, 0x89, 0x79, 0x3d, 0x0b, 0xf8, 0x25, 0xbd, 0xb9, 0xc8, 0x6b, 0xbd,
  0x26, 0x97, 0x27, 0x3f, 0x80, 0x8f, 0x06, 0x3f, 0x1c, 0x93, 0xb8, 0xbe,
  0x87, 0x13, 0xe5, 0xbd, 0x16, 0xc1, 0x0b, 0xbe, 0x30, 0x01, 0x0c, 0xbe,
  0x9b, 0x21, 0x39, 0x3d, 0xa8, 0xb0, 0x2f, 0xbf, 0x77, 0x0b, 0xac, 0x3e,
  0x6b, 0x08, 0x03, 0x3e, 0xf9, 0x74, 0x6e, 0x3d, 0x55, 0x52, 0xcc, 0xbe,
  0x0b, 0x58, 0xf1, 0x3e, 0x4c, 0x32, 0xcb, 0x3c, 0x49, 0xeb, 0x04, 0xbe,
  0xae, 0x6c, 0x9a, 0xbe, 0x89, 0x3f, 0x3d, 0x3e, 0xcf, 0xb2, 0x44, 0x3c,
  0x26, 0x6d, 0x09, 0xba, 0x49, 0x5f, 0xd1, 0x3d, 0x35, 0x57, 0xda, 0xbd,
  0xe0, 0x7f, 0x3c, 0xbf, 0x88, 0xad, 0xa3, 0x3d, 0x79, 0xdd, 0x29, 0xbe,
  0x38, 0xb3, 0xcb, 0xbc, 0x48, 0xaa, 0x3d, 0xbb, 0x36, 0x73, 0x23, 0x3d,
  0xef, 0x55, 0xb5, 0xbf, 0x1c, 0xe5, 0xac, 0xbe, 0xaa, 0x84, 0x51, 0x3e,
  0x22, 0x77, 0xa7, 0x3d, 0xa7, 0x9a, 0x1e, 0x3e, 0x51, 0x14, 0x92, 0xbd,
  0xca, 0xec, 0x29, 0xbe, 0x4a, 0x0d, 0x50, 0x3f, 0x52, 0xb1, 0x1a, 0xbf,
  0xe2, 0x12, 0xe3, 0xbd, 0x6b, 0xde, 0x44, 0xbe, 0x1b, 0x17, 0x72, 0x3e,
  0x5b, 0x3c, 0x82, 0xbf, 0xcf, 0xa5, 0xc5, 0x3c, 0x42, 0xfd, 0x8d, 0xbe,
  0x35, 0xc9, 0x0d, 0x3f, 0xa1, 0x70, 0x8c, 0xbe, 0xac, 0x71, 0xf1, 0xbd,
  0xf8, 0x8c, 0xdf, 0xbd, 0xa9, 0x1f, 0x88, 0xbe, 0xc0, 0x28, 0x7e, 0x3e,
  0xbe, 0x2f, 0xf1, 0xbd, 0x04, 0x3e, 0x02, 0x3e, 0x3a, 0xfb, 0x0b, 0x3d,
  0x37, 0x44, 0x50, 0xbd, 0xaa, 0xa6, 0xc7, 0x3d, 0x7a, 0x19, 0x45, 0x3f,
  0x3d, 0xa1, 0x90, 0x3d, 0xad, 0x95, 0x0b, 0xbd, 0xda, 0x56, 0x69, 0xbe,
  0x2c, 0x60, 0x65, 0xbd, 0x35, 0x1e, 0x87, 0x3d, 0x5a, 0x08, 0x32, 0xbf,
  0x8a, 0xc4, 0xcb, 0x3c, 0x7d, 0x24, 0x07, 0xbe, 0x0d, 0xd4, 0xdc, 0xbd,
  0x7e, 0xd1, 0x39, 0x3e, 0xe9, 0xbc, 0x84, 0xbd, 0xdf, 0x8f, 0x0c, 0x3e,
  0x43, 0xd7, 0xab, 0xbe, 0x90, 0xaa, 0x2a, 0xbd, 0xfc, 0xe2, 0xd8, 0xbc,
  0xcb, 0x1f, 0x87, 0xbd, 0x81, 0xdb, 0x13, 0xbe, 0xcf, 0xfe, 0x80, 0xbf,
  0x48, 0xc0, 0xc5, 0xbe, 0x43, 0x20, 0xb4, 0xbe, 0xb4, 0x93, 0x5d, 0x3e,
  0x40, 0x22, 0x39, 0xbe, 0xdd, 0xef, 0x59, 0xbe, 0x44, 0xa0, 0x00, 0x3e,
  0xaa, 0x94, 0x65, 0x3e, 0xa2, 0xd8, 0x64, 0xbe, 0xbc, 0x8c, 0x99, 0xbd,
  0x4a, 0x17, 0xe7, 0xbc, 0x8a, 0x9f, 0x22, 0xbe, 0xc6, 0xb4, 0xe8, 0x3d,
  0x8c, 0x8a, 0xa1, 0x3e, 0x93, 0x0e, 0xc1, 0xbe, 0xa4, 0x86, 0xb4, 0xbd,
  0x8f, 0xef, 0x18, 0x3e, 0x04, 0x41, 0x39, 0xbe, 0x4f, 0x39, 0x71, 0xbd,
  0x76, 0xaa, 0x1b, 0x3e, 0x4f, 0xd6, 0xc1, 0xbc, 0x4f, 0x6e, 0xbf, 0xbe,
  0xb6, 0x98, 0x33, 0xbd, 0xcd, 0x15, 0x1e, 0x3d, 0xf6, 0x19, 0xcc, 0x3c,
  0x82, 0x92, 0xbd, 0x3e, 0xd3, 0x8a, 0x8e, 0xbe, 0xff, 0x2d, 0x64, 0x3f,
  0xbe, 0x35, 0xd3, 0xbe, 0x63, 0xfb, 0xd4, 0x3d, 0x54, 0x8e, 0x71, 0x3d,
  0xc4, 0xb2, 0x1b, 0xbd, 0x65, 0xe1, 0xd2, 0xbf, 0x58, 0xc2, 0xae, 0x3e,
  0xec, 0x99, 0xa4, 0xbe, 0x98, 0x7d, 0xcc, 0xbe, 0x0c, 0x03, 0x7e, 0x3d,
  0x18, 0x31, 0x4f, 0xbd, 0x07, 0x9b, 0x6d, 0xbe, 0xe6, 0x0f, 0xc9, 0xbe,
  0x99, 0xd3, 0x6c, 0xbe, 0x58, 0x78, 0xf5, 0x3d, 0xbd, 0xd9, 0xed, 0x3d,
  0x89, 0x08, 0x8b, 0xbd, 0x3c, 0x39, 0x23, 0x3e, 0xc0, 0x36, 0x26, 0x3e,
  0x95, 0xc1, 0xc1, 0x3e, 0x01, 0xe6, 0x9a, 0xbd, 0xef, 0xbc, 0x37, 0xbe,
  0x54, 0x01, 0x25, 0xbe, 0xd3, 0xb8, 0xcb, 0x3c, 0x3f, 0xda, 0x8b, 0xbd,
  0xf4, 0x0d, 0x95, 0x3f, 0xfa, 0x56, 0x03, 0xbe, 0x56, 0x17, 0x16, 0x3e,
  0xc2, 0x41, 0x2f, 0xbe, 0x3c, 0x6f, 0x81, 0xbc, 0x2a, 0xcc, 0xeb, 0xbd,
  0x5c, 0x80, 0x45, 0xbe, 0xa3, 0xac, 0xb3, 0xbe, 0xdc, 0xb3, 0xe6, 0x3d,
  0xf8, 0x8e, 0xc2, 0xbd, 0x39, 0x0b, 0x3c, 0x3d, 0xd3, 0xfb, 0x81, 0xbe,
  0xc6, 0xb2, 0xa6, 0x3f, 0x75, 0x60, 0xae, 0x3e, 0x06, 0x81, 0x96, 0x3e,
  0xe2, 0x79, 0x69, 0xbe, 0x23, 0xfd, 0xfd, 0xbe, 0x44, 0x42, 0x1d, 0x3c,
  0x93, 0xcc, 0x49, 0xbc, 0xec, 0x05, 0x06, 0xbf, 0x31, 0xda, 0x52, 0x3e,
  0x9d, 0x44, 0xe8, 0x3d, 0xf9, 0xc5, 0x10, 0xbc, 0x56, 0x73, 0x7e, 0xbe,
  0x31, 0xaf, 0x14, 0xbe, 0xe5, 0x2b, 0x24, 0xbe, 0x74, 0xdf, 0xf0, 0xbe,
  0xb0, 0x86, 0x20, 0x3e, 0xe4, 0xb5, 0x17, 0x3e, 0xeb, 0xda, 0x50, 0xbe,
  0xb8, 0xae, 0x81, 0xbd, 0x80, 0xa5, 0x7b, 0xbd, 0x26, 0x08, 0x5a, 0x3f,
  0xa1, 0xb9, 0x1a, 0xbe, 0xfc, 0xe1, 0x3b, 0xbe, 0x3c, 0x4e, 0x09, 0xbd,
  0x31, 0xfc, 0xca, 0x3d, 0x68, 0xf0, 0x0c, 0xbf, 0x20, 0x07, 0x2a, 0x3d,
  0x93, 0x31, 0xe8, 0x3e, 0xc0, 0x98, 0xef, 0x3e, 0xc9, 0xa6, 0xe9, 0x3d,
  0x84, 0xe3, 0x5b, 0x3e, 0xf4, 0x4a, 0x52, 0x3e, 0x23, 0x3e, 0x76, 0xbe,
  0xc7, 0x3f, 0xb5, 0x3e, 0x2a, 0x8a, 0x31, 0xbd, 0xa9, 0x0f, 0xa3, 0xbe,
  0x5c, 0xc5, 0x30, 0xbf, 0x85, 0xf1, 0xb4, 0xbe, 0x2e, 0x81, 0x21, 0x3e,
  0x49, 0x21, 0x17, 0xbf, 0x41, 0x92, 0x9d, 0xbe, 0x8f, 0xe8, 0x01, 0xbe,
  0xf6, 0xee, 0x0e, 0x3e, 0xc0, 0xf6, 0x2d, 0xbe, 0xa1, 0xdb, 0xb1, 0x3e,
  0xa0, 0xb2, 0xac, 0xbe, 0x07, 0x38, 0x4e, 0x3f, 0xd2, 0xfa, 0x5d, 0xbe,
  0x7d, 0xd0, 0x4a, 0x3d, 0x0e, 0xd1, 0x1d, 0xbe, 0xa1, 0x82, 0x7d, 0xbc,
  0x27, 0x6f, 0xec, 0x3d, 0xa5, 0x25, 0xa1, 0x3d, 0xb7, 0xb8, 0xea, 0xbe,
  0xa5, 0xa4, 0x17, 0xbc, 0x93, 0xba, 0x7a, 0x3c, 0x62, 0x26, 0xcb, 0x3d,
  0x71, 0x65, 0x6f, 0xbd, 0x6b, 0xb2, 0x08, 0x3f, 0xb7, 0x2c, 0xdf, 0xbf,
  0x3c, 0xa9, 0x00, 0x3f, 0x66, 0x3d, 0xcd, 0x3d, 0xde, 0x02, 0xc4, 0x3d,
  0xfc, 0x78, 0x0b, 0xbe, 0xb0, 0x22, 0x07, 0xbf, 0x00, 0xd2, 0xcf, 0x3e,
  0xce, 0x98, 0xaa, 0x3e, 0x67, 0xf6, 0xd6, 0x3e, 0x5c, 0x11, 0x89, 0x3d,
  0x83, 0xa5, 0xb4, 0xbe, 0x0d, 0x70, 0x9d, 0xbc, 0x66, 0x6f, 0x37, 0xbb,
  0x53, 0xe1, 0x2f, 0xbe, 0xd4, 0x60, 0x9d, 0x3d, 0x31, 0x3a, 0x3b, 0x3d,
  0x81, 0xb6, 0xec, 0xbe, 0x26, 0x27, 0x4e, 0x3e, 0xa0, 0xc9, 0xf2, 0xbd,
  0x8e, 0xa8, 0x97, 0x3f, 0xf4, 0x06, 0x3d, 0x3e, 0xff, 0xc7, 0x5d, 0xbe,
  0x00, 0x0a, 0x70, 0x3e, 0xca, 0x28, 0xce, 0xbd, 0xa7, 0x8d, 0x8e, 0xbd,
  0x77, 0x78, 0x0b, 0x3e, 0x77, 0x3c, 0xeb, 0xbd, 0xcd, 0x45, 0x00, 0x3e,
  0x9b, 0x4b, 0x78, 0x3e, 0x4c, 0x67, 0x59, 0xbe, 0x91, 0x28, 0xfc, 0xbe,
  0x05, 0x5c, 0x91, 0x3d, 0x97, 0x2f, 0x4f, 0xbf, 0xc2, 0x36, 0xe5, 0x3e,
  0x12, 0xc6, 0x3a, 0x3d, 0xec, 0xad, 0xfd, 0x3d, 0xc9, 0x89, 0x91, 0xbe,
  0xbe, 0x9d, 0x51, 0x3e, 0xc1, 0xbf, 0xd0, 0xbe, 0x3b, 0x1c, 0x79, 0x3e,
  0xcf, 0x76, 0xe3, 0xbe, 0x48, 0x00, 0x0c, 0xbf, 0xe0, 0x94, 0x81, 0x3e,
  0x6b, 0x18, 0xc7, 0x3c, 0x69, 0xb2, 0x9e, 0xbd, 0xdd, 0x80, 0xf1, 0xbe,
  0xda, 0x28, 0x11, 0xbe, 0xd1, 0x14, 0x2c, 0x3e, 0x73, 0x8d, 0x6a, 0xbe,
  0x8d, 0x91, 0x2c, 0xbe, 0x08, 0xb3, 0xe1, 0x3d, 0x1b, 0xb5, 0x4d, 0xbd,
  0x2d, 0x00, 0xd4, 0xbd, 0xee, 0xa3, 0x38, 0x3e, 0xf8, 0x40, 0x8b, 0x3d,
  0x01, 0x86, 0x14, 0x3d, 0x7e, 0x0b, 0xe4, 0x3c, 0x5c, 0xd0, 0xd3, 0xbe,
  0x06, 0x13, 0xbf, 0xbe, 0xc5, 0xac, 0xdd, 0xbd, 0x73, 0xf2, 0x98, 0xbd,
  0xfd, 0xf4, 0x17, 0xbd, 0x29, 0x27, 0x13, 0xbe, 0xcd, 0x84, 0x25, 0x3f,
  0xfb, 0x36, 0xbc, 0xbf, 0xf8, 0x76, 0xd6, 0x3e, 0xfa, 0xd1, 0xc7, 0xbd,
  0x55, 0x38, 0x0d, 0x3e, 0x74, 0x6c, 0x50, 0x3d, 0xde, 0x16, 0x22, 0x3f,
  0x12, 0xaf, 0xad, 0x3e, 0x0f, 0x7c, 0x18, 0x3e, 0x79, 0xf0, 0x95, 0x3e,
  0x5a, 0x45, 0xb0, 0xbe, 0x92, 0xf9, 0x93, 0x3e, 0xcc, 0x67, 0x0c, 0xbe,
  0xeb, 0x0f, 0x3e, 0x3e, 0x1d, 0x76, 0xb3, 0xbe, 0xb9, 0xbf, 0x75, 0x3c,
  0xb5, 0x51, 0xc4, 0xbc, 0x0e, 0x73, 0x64, 0xbe, 0x01, 0x38, 0x7f, 0xbe,
  0xd2, 0x9d, 0xc9, 0x3d, 0xd8, 0xb1, 0xc8, 0x3f, 0x83, 0x18, 0xb2, 0x3c,
  0x46, 0x61, 0x66, 0xbe, 0xc2, 0x97, 0x79, 0xbe, 0x7a, 0x3d, 0x22, 0x3b,
  0xb6, 0x67, 0xcd, 0x3d, 0x60, 0xd9, 0xdf, 0xbe, 0xe3, 0x6a, 0xd2, 0x3c,
  0x74, 0x3e, 0x64, 0xbd, 0xd0, 0xfa, 0x11, 0x3e, 0x61, 0x07, 0x08, 0x3d,
  0xfc, 0xab, 0xf6, 0xbe, 0x73, 0xb0, 0xba, 0x3e, 0x0e, 0x7c, 0xe8, 0xbf,
  0x09, 0x43, 0x28, 0xbd, 0xf8, 0x1d, 0xce, 0x3d, 0x78, 0xa6, 0x6d, 0xbe,
  0x80, 0x12, 0x0f, 0x3e, 0x52, 0x53, 0x02, 0xbf, 0xd3, 0x40, 0x3b, 0x3d,
  0x0d, 0x44, 0x52, 0x3e, 0x5e, 0x3a, 0xd8, 0x3e, 0x3b, 0x59, 0xcb, 0xbe,
  0x80, 0x93, 0x80, 0x3e, 0x40, 0x96, 0x02, 0xbe, 0xc8, 0x99, 0x9b, 0xbe,
  0x7d, 0x27, 0xd5, 0xbd, 0xa3, 0x42, 0x8a, 0x3e, 0x82, 0x41, 0x24, 0xbe,
  0xab, 0x96, 0x65, 0xbe, 0x91, 0x02, 0x25, 0x3c, 0xe1, 0x70, 0xaf, 0x3d,
  0xfd, 0x72, 0x51, 0x3f, 0xde, 0x8a, 0x54, 0xbe, 0x44, 0x72, 0x79, 0xbe,
  0x1c, 0xb0, 0x2d, 0xbd, 0x3d, 0x2c, 0x98, 0xbd, 0x5e, 0x8c, 0x24, 0xbe,
  0xd5, 0xc4, 0x7b, 0xbf, 0x26, 0x8b, 0x1e, 0xbe, 0xbe, 0x08, 0xf6, 0xbc,
  0x03, 0x08, 0xd6, 0xbd, 0xf9, 0xe9, 0x3b, 0x3e, 0xc6, 0xeb, 0x0b, 0x3f,
  0x7b, 0x94, 0x5c, 0x3b, 0xb5, 0x0b, 0xc0, 0x3d, 0x6a, 0xd4, 0x31, 0xbe,
  0xee, 0x2e, 0xbd, 0xbd, 0x73, 0x2b, 0xcf, 0x3d, 0x16, 0xff, 0x92, 0xbe,
  0xed, 0x83, 0xb5, 0xbf, 0x1b, 0xc8, 0x11, 0x3e, 0xd9, 0xf4, 0xac, 0xbe,
  0x7e, 0x55, 0x04, 0xbf, 0x2b, 0x73, 0x2b, 0xbe, 0x01, 0xf1, 0xe7, 0x3c,
  0x28, 0x85, 0x9c, 0x3d, 0x6a, 0x84, 0xde, 0x3d, 0x60, 0x69, 0x15, 0xbe,
  0x34, 0x08, 0x4d, 0xbe, 0xef, 0x84, 0x3c, 0xbe, 0x6b, 0x12, 0x2b, 0xbe,
  0xd7, 0xc8, 0x7b, 0x3e, 0xfe, 0x5b, 0x02, 0x3e, 0x72, 0x75, 0x88, 0xbe,
  0x69, 0xd0, 0xd3, 0x3d, 0xc6, 0xc7, 0x7c, 0xbe, 0xc9, 0x5a, 0x17, 0xbd,
  0x7e, 0xb4, 0xb7, 0x3d, 0x6d, 0xeb, 0x76, 0x3e, 0x63, 0x35, 0xb9, 0xbf,
  0xcf, 0xa4, 0x81, 0xbe, 0xe2, 0x4e, 0xee, 0xbd, 0x86, 0x4d, 0x43, 0x3e,
  0xd0, 0x3a, 0x9a, 0xbd, 0x37, 0x84, 0xce, 0xbe, 0x51, 0x9e, 0xb3, 0xbe,
  0x30, 0x8c, 0x73, 0xbd, 0x5f, 0x8a, 0xd5, 0xbd, 0x3c, 0x29, 0x26, 0x3e,
  0x27, 0x87, 0x19, 0xbe, 0x1b, 0xfd, 0x93, 0x3e, 0x35, 0x63, 0xa9, 0xbf,
  0x70, 0xec, 0x23, 0xbc, 0x84, 0xe3, 0xe2, 0xbd, 0xc7, 0x69, 0x92, 0x3e,
  0x49, 0xeb, 0x1f, 0xbe, 0x1e, 0x82, 0x0e, 0xbe, 0xca, 0x95, 0x54, 0x3e,
  0x46, 0x7f, 0xe1, 0x3e, 0xcb, 0x48, 0xba, 0xbd, 0x08, 0x78, 0xa1, 0xbe,
  0x3e, 0xa4, 0x0d, 0x3e, 0x10, 0x80, 0x8c, 0xba, 0x20, 0x6c, 0x96, 0xbe,
  0x8a, 0xf5, 0xa5, 0x3e, 0xe4, 0x80, 0xe2, 0x3d, 0x37, 0xcc, 0x59, 0x3d,
  0x83, 0x1f, 0x37, 0x3d, 0xdf, 0xe2, 0x76, 0xbe, 0xff, 0x7a, 0x0d, 0xbd,
  0x8d, 0xaf, 0xb8, 0xbd, 0x48, 0xda, 0xfc, 0x3a, 0xe3, 0x01, 0x22, 0xbe,
  0x88, 0x94, 0x34, 0x3e, 0x5b, 0x6d, 0xa8, 0xbe, 0xee, 0xfa, 0x81, 0xbe,
  0xc5, 0xc3, 0xa2, 0xbd, 0xed, 0x3f, 0xb2, 0xbd, 0xe6, 0xe6, 0x86, 0xbe,
  0x4c, 0x67, 0x01, 0x3e, 0x3d, 0x82, 0xad, 0xbd, 0xc4, 0x1e, 0x19, 0x3d,
  0x38, 0xc3, 0x6d, 0x3e, 0x1e, 0x78, 0x12, 0x3e, 0x9f, 0xb3, 0x06, 0x3f,
  0xf5, 0x77, 0x0d, 0x3e, 0x41, 0x6c, 0xe7, 0xbd, 0x0a, 0x2e, 0xe1, 0x3d,
  0xda, 0x5d, 0xfa, 0xbe, 0x0f, 0xd5, 0x86, 0xbe, 0xa8, 0x71, 0xd0, 0xbe,
  0x8e, 0x5d, 0x0b, 0x3e, 0x98, 0x09, 0xa0, 0xbe, 0x93, 0x84, 0x6c, 0x3d,
  0xd5, 0x0b, 0xbe, 0x3e, 0x44, 0xca, 0xfb, 0x3d, 0xde, 0x5d, 0x43, 0xbe,
  0xb4, 0x86, 0x14, 0x3f, 0x98, 0xdf, 0x47, 0x3e, 0xb6, 0x4c, 0x84, 0x3e,
  0x61, 0x54, 0x84, 0xbe, 0x7e, 0xf3, 0xd8, 0xbd, 0x3f, 0x50, 0x00, 0x3e,
  0xf0, 0xea, 0x8c, 0x3e, 0x1d, 0xc7, 0x73, 0x3e, 0x66, 0x89, 0x40, 0xbe,
  0xb0, 0x58, 0xd7, 0xbe, 0x4f, 0xb0, 0xd2, 0x3c, 0xc9, 0xec, 0x1a, 0x3e,
  0x71, 0xd8, 0xb7, 0x3c, 0x2a, 0x07, 0x97, 0x3e, 0xc5, 0x27, 0x8c, 0xbc,
  0xef, 0x06, 0x20, 0xbe, 0x76, 0x17, 0xc5, 0x3d, 0x8f, 0xd2, 0x7d, 0x3d,
  0xe1, 0x39, 0xdf, 0xbe, 0x6e, 0x11, 0xb9, 0x3e, 0x66, 0x7a, 0xac, 0x3e,
  0x07, 0x0b, 0x4a, 0x3e, 0xef, 0x8d, 0x95, 0x3e, 0x6a, 0xcf, 0x29, 0xbe,
  0xb1, 0x16, 0xa7, 0xbc, 0x5e, 0xf1, 0x25, 0x3d, 0x10, 0xfc, 0x4e, 0xbe,
  0xce, 0x76, 0xd2, 0xbe, 0x3d, 0x86, 0x6a, 0x3d, 0xb8, 0x50, 0xf5, 0x3d,
  0x49, 0x75, 0x2e, 0xbd, 0x61, 0x24, 0x53, 0x3d, 0xb1, 0x8b, 0x34, 0xbd,
  0x7b, 0x2c, 0x7c, 0x3d, 0xf2, 0xed, 0x34, 0x3e, 0xbb, 0x7c, 0x45, 0xbe,
  0x71, 0x44, 0x1d, 0x3c, 0xa5, 0x3f, 0x99, 0x3d, 0xef, 0x99, 0x0c, 0x3f,
  0x90, 0x13, 0x96, 0x3d, 0x7a, 0x14, 0x86, 0xbd, 0xc7, 0x80, 0x89, 0xbc,
  0x93, 0x7d, 0x54, 0x3d, 0xd7, 0xc6, 0x6e, 0x3e, 0x8d, 0x73, 0x30, 0x3e,
  0xea, 0x7e, 0x48, 0xbe, 0x74, 0x3e, 0x83, 0x3c, 0x98, 0x6f, 0x88, 0x3d,
  0xfc, 0xcb, 0x56, 0xbe, 0xe0, 0x9a, 0x7c, 0xbe, 0xb1, 0x88, 0xe8, 0x3f,
  0xaa, 0x33, 0xb2, 0xbd, 0x86, 0xa0, 0x6c, 0x3e, 0x61, 0x8d, 0x33, 0xbe,
  0x9a, 0xf9, 0xff, 0xff, 0x04, 0x00, 0x00, 0x00, 0x80, 0x00, 0x00, 0x00,
  0x88, 0x54, 0xb3, 0x3f, 0x2d, 0x5c, 0x01, 0xc0, 0x13, 0x30, 0xd5, 0xbf,
  0xde, 0xe2, 0xfc, 0x3f, 0xc0, 0xff, 0xf2, 0x3e, 0xa3, 0x5b, 0xf9, 0xbf,
  0xb6, 0x9b, 0xe1, 0xbf, 0x18, 0x62, 0x41, 0x3f, 0xed, 0xc4, 0x0b, 0x40,
  0xe1, 0xfd, 0x80, 0x3f, 0x85, 0x0f, 0x93, 0x3f, 0x3c, 0x2e, 0x4e, 0x3f,
  0xf6, 0x2f, 0x65, 0x3f, 0xf2, 0x65, 0x1e, 0xbc, 0x4d, 0x97, 0x77, 0xbf,
  0x9b, 0x90, 0x38, 0xbf, 0xa6, 0xde, 0x21, 0x3f, 0x6a, 0x29, 0xfd, 0xbd,
  0x19, 0xc9, 0xc9, 0x3e, 0x96, 0x1f, 0xcb, 0x3e, 0xc8, 0xdb, 0xda, 0xbf,
  0xf0, 0x66, 0x01, 0x3f, 0xcd, 0x29, 0x30, 0x3f, 0x97, 0x04, 0x2e, 0x3f,
  0x7a, 0xd5, 0xad, 0x3e, 0xb6, 0x08, 0x85, 0x3e, 0x0b, 0x4f, 0xba, 0x3f,
  0xf1, 0xe2, 0x32, 0x3f, 0x19, 0xbd, 0x4e, 0x3f, 0xae, 0x9b, 0xc7, 0x3f,
  0xc4, 0xd0, 0x76, 0xbf, 0x9f, 0x2d, 0x79, 0x3f, 0x26, 0xfa, 0xff, 0xff,
  0x04, 0x00, 0x00, 0x00, 0x00, 0x01, 0x00, 0x00, 0x72, 0x1d, 0x84, 0x3e,
  0x89, 0xdf, 0x0f, 0x3e, 0x85, 0x4f, 0xa3, 0xbf, 0x45, 0x27, 0x65, 0x3e,
  0x98, 0x57, 0xef, 0xbe, 0x15, 0x29, 0xd9, 0xbc, 0x5d, 0x6b, 0x81, 0x3e,
  0x2b, 0x8b, 0x73, 0xbe, 0xcc, 0x89, 0x8a, 0xbb, 0x24, 0x80, 0x82, 0x3b,
  0xee, 0xfc, 0xfa, 0x3d, 0x36, 0xcd, 0x7b, 0xbf, 0xe1, 0x07, 0x94, 0xbf,
  0x14, 0x84, 0xbd, 0xbe, 0xdf, 0x3e, 0xd4, 0xbe, 0x97, 0x23, 0x12, 0x3e,
  0x3e, 0x4c, 0xaa, 0x3d, 0x50, 0x0f, 0x91, 0xbe, 0xa7, 0x9d, 0xad, 0x3e,
  0x35, 0x08, 0xac, 0xbe, 0xf1, 0x46, 0xe5, 0x3e, 0x22, 0x27, 0x17, 0xbf,
  0xbb, 0x2e, 0xab, 0xbd, 0x42, 0x11, 0x63, 0xbf, 0xef, 0x06, 0xa4, 0xbe,
  0xf1, 0xee, 0x8c, 0xbe, 0x14, 0x21, 0x63, 0xbe, 0x23, 0x88, 0x80, 0xbe,
  0x44, 0x9f, 0xe3, 0xbd, 0xb3, 0xb1, 0xc5, 0xbd, 0xfd, 0xbc, 0x96, 0xbe,
  0x0c, 0x4e, 0xdc, 0xbe, 0x4c, 0x06, 0x1c, 0x3e, 0x97, 0xb6, 0x90, 0x3e,
  0xdb, 0x4e, 0x3a, 0xbe, 0xa3, 0x4b, 0x5e, 0xbd, 0x26, 0x4c, 0x43, 0xbe,
  0x22, 0x37, 0x8a, 0xbd, 0x81, 0x7f, 0x04, 0x3f, 0x40, 0x3c, 0xf2, 0x3e,
  0x38, 0xe1, 0xaf, 0x3d, 0xed, 0xfe, 0x94, 0xbe, 0xbc, 0x3c, 0x6e, 0x3e,
  0x74, 0x79, 0xaa, 0x3d, 0xe5, 0x1c, 0x10, 0x3f, 0x65, 0xb7, 0xd0, 0xbe,
  0x9c, 0x28, 0x8a, 0xbe, 0xb8, 0xbb, 0xcd, 0x3c, 0x52, 0x9c, 0x75, 0xbd,
  0xa3, 0x23, 0x60, 0x3e, 0x7a, 0x3b, 0x7b, 0x3e, 0x88, 0xe1, 0x79, 0xbe,
  0xe8, 0xad, 0xdf, 0x3e, 0xd1, 0x5e, 0xe6, 0xbe, 0x78, 0x55, 0xa7, 0x3e,
  0xbc, 0xb6, 0xdd, 0x3e, 0x74, 0xee, 0x88, 0x3e, 0xad, 0x0e, 0xfe, 0x3e,
  0x82, 0xa3, 0xae, 0x3e, 0x76, 0x48, 0xbf, 0xbe, 0xe6, 0xcc, 0x71, 0x3d,
  0x9c, 0xc1, 0x09, 0xbf, 0x1c, 0x78, 0xc4, 0xbe, 0xf8, 0xf9, 0xe0, 0xbc,
  0x32, 0xfb, 0xff, 0xff, 0x04, 0x00, 0x00, 0x00, 0x10, 0x00, 0x00, 0x00,
  0x9d, 0xba, 0x3f, 0x3d, 0x5f, 0x02, 0x94, 0x3d, 0xf0, 0x00, 0x8f, 0x3b,
  0xe5, 0x1f, 0x7b, 0xbd, 0x4e, 0xfb, 0xff, 0xff, 0x04, 0x00, 0x00, 0x00,
  0x00, 0x01, 0x00, 0x00, 0x42, 0x81, 0x17, 0xbe, 0x85, 0x2a, 0x5c, 0x3b,
  0x08, 0x6e, 0x17, 0x3e, 0x95, 0x3c, 0xb6, 0xbd, 0xcf, 0xb5, 0xe3, 0xbc,
  0xa6, 0x5b, 0x3b, 0x3e, 0x0f, 0x20, 0x0e, 0xbe, 0x89, 0xe1, 0x76, 0xbe,
  0x12, 0x18, 0x51, 0xbd, 0x6d, 0x49, 0xa4, 0xbc, 0x91, 0xfa, 0xb6, 0xbd,
  0x5e, 0xf9, 0xa5, 0xbd, 0x96, 0x00, 0xcc, 0x3d, 0xcf, 0xfe, 0x82, 0x3d,
  0xfe, 0x68, 0xfd, 0xbc, 0xd4, 0x2a, 0xcf, 0x3d, 0xeb, 0x6a, 0x42, 0xbe,
  0x66, 0x39, 0x5b, 0x3d, 0xd3, 0x8e, 0x01, 0x3e, 0xbd, 0x95, 0xc1, 0xbd,
  0x8c, 0x7f, 0x1e, 0xbe, 0x7e, 0xf5, 0xe7, 0xba, 0x0b, 0xb7, 0x92, 0xbd,
  0x87, 0x45, 0x7d, 0xbd, 0x5a, 0x98, 0x7b, 0x3d, 0xb4, 0x25, 0x81, 0x3d,
  0x46, 0x27, 0x7f, 0xbc, 0x6a, 0x29, 0xae, 0x3d, 0xd4, 0x4e, 0xe0, 0x3d,
  0xde, 0xdf, 0xc2, 0xbd, 0x04, 0x13, 0x5a, 0x3c, 0xe4, 0x62, 0x1b, 0x3e,
  0xc0, 0x61, 0x41, 0xbe, 0xbd, 0xae, 0x64, 0xbe, 0x39, 0x9e, 0x2c, 0x3c,
  0x73, 0x31, 0x58, 0x3d, 0x97, 0x3a, 0x2c, 0x3d, 0x39, 0x68, 0xb2, 0x3d,
  0xbb, 0x58, 0x99, 0xbd, 0xba, 0x7c, 0x72, 0xbd, 0xc0, 0x57, 0x6b, 0xbd,
  0xa4, 0xa2, 0x15, 0xbe, 0x86, 0xb6, 0x88, 0xbc, 0x59, 0xd2, 0x85, 0xbe,
  0x39, 0x80, 0x67, 0xbd, 0x3a, 0x8a, 0x81, 0x3c, 0xbb, 0x82, 0x59, 0x3d,
  0x48, 0xe3, 0x4e, 0x3c, 0xe9, 0x8d, 0x24, 0x3d, 0xdf, 0x2f, 0x48, 0x3e,
  0x45, 0xf9, 0x9b, 0x3d, 0x09, 0xe9, 0xa3, 0xbd, 0xdb, 0x20, 0xb3, 0x3d,
  0x88, 0x79, 0x3b, 0x3d, 0x05, 0x84, 0x23, 0x3d, 0x5c, 0x63, 0x8b, 0x3d,
  0xae, 0xb5, 0x25, 0x3d, 0xad, 0xf1, 0x03, 0x3e, 0xb1, 0x24, 0xb1, 0xba,
  0x06, 0x49, 0x22, 0xbe, 0xd8, 0xc4, 0x45, 0x3d, 0x84, 0x1e, 0x29, 0x3e,
  0xb5, 0xbf, 0xa9, 0x3c, 0x4b, 0xbc, 0x5e, 0xbd, 0x5a, 0xfc, 0xff, 0xff,
  0x04, 0x00, 0x00, 0x00, 0x00, 0x03, 0x00, 0x00, 0x7d, 0xe8, 0xa4, 0x3d,
  0x30, 0x9d, 0x29, 0xbe, 0x87, 0x42, 0xdf, 0x3d, 0x85, 0x18, 0xcc, 0x3d,
  0xb8, 0x10, 0xaa, 0xbe, 0xad, 0xa5, 0x2e, 0xbd, 0x90, 0xbc, 0x83, 0x3c,
  0xe0, 0x84, 0x93, 0xbe, 0x74, 0x51, 0x4c, 0x3e, 0xd1, 0x91, 0x7b, 0x3c,
  0x31, 0xe3, 0x14, 0x3e, 0x82, 0x06, 0x51, 0xbe, 0xdb, 0x80, 0xab, 0xbd,
  0x22, 0x09, 0xa7, 0x3e, 0x5a, 0x09, 0x05, 0x3e, 0x00, 0x0d, 0x24, 0xbb,
  0x3f, 0x1a, 0x5a, 0x3e, 0x17, 0x31, 0x92, 0x3e, 0x27, 0xa9, 0xc4, 0xbb,
  0x9d, 0xbf, 0xda, 0x3c, 0xb7, 0x87, 0xdf, 0xbe, 0xea, 0xa4, 0xf5, 0x3c,
  0x0d, 0x1b, 0x93, 0x3d, 0x3b, 0x15, 0x65, 0xbe, 0x84, 0xf8, 0x35, 0x3e,
  0x14, 0x55, 0x75, 0x3d, 0xc8, 0x8c, 0x74, 0xbe, 0x8c, 0xc2, 0x2c, 0xbc,
  0xab, 0x29, 0x8c, 0xbe, 0x48, 0x18, 0x39, 0x3e, 0x38, 0x0c, 0xa5, 0xbe,
  0x39, 0x9a, 0x3d, 0xbe, 0x54, 0x0d, 0xd7, 0xbc, 0x9c, 0x55, 0x35, 0x3c,
  0x35, 0xd7, 0xef, 0x3e, 0xaf, 0x43, 0x04, 0xbb, 0xb1, 0xdb, 0x6c, 0xbc,
  0xf0, 0xdb, 0x70, 0xbe, 0x47, 0x7d, 0x0c, 0xbe, 0x48, 0x1b, 0x1c, 0x3e,
  0x5b, 0x4f, 0xb8, 0xbe, 0xa6, 0xbd, 0x80, 0xbe, 0xe9, 0x12, 0x78, 0x3c,
  0xfa, 0x4f, 0x32, 0xbe, 0x38, 0x16, 0xbd, 0xbe, 0x1b, 0x45, 0xf3, 0x3d,
  0xc8, 0x67, 0xa7, 0x3c, 0xad, 0xff, 0x4c, 0xbe, 0xc7, 0xac, 0x11, 0xbc,
  0x9b, 0x53, 0xa6, 0x3d, 0x4e, 0x72, 0x82, 0xbe, 0x8d, 0x74, 0x31, 0x3e,
  0xb4, 0xe4, 0x81, 0x3e, 0x1a, 0x8d, 0x5e, 0xbe, 0x15, 0xc4, 0x40, 0xbe,
  0xda, 0xe2, 0xb4, 0xbe, 0x17, 0x85, 0x51, 0x3e, 0x6a, 0xb3, 0x7a, 0x3e,
  0xf1, 0x28, 0x5d, 0xbe, 0x96, 0xf7, 0xd4, 0x3d, 0x66, 0xe8, 0xd0, 0xbc,
  0x66, 0xc2, 0x78, 0x3d, 0x90, 0x27, 0xaf, 0xbe, 0x2e, 0x7d, 0x14, 0x3c,
  0x75, 0x50, 0x31, 0xbe, 0x88, 0x00, 0x07, 0x3e, 0x29, 0x65, 0xbe, 0xb9,
  0x49, 0xd9, 0xaf, 0x3e, 0xa7, 0x2a, 0x17, 0x3b, 0xd6, 0x5b, 0x34, 0xbc,
  0x93, 0xbb, 0xa9, 0x3e, 0xe2, 0x14, 0x7d, 0x3a, 0x72, 0x3b, 0x20, 0x3e,
  0xd6, 0xf0, 0x8b, 0x3d, 0x60, 0x63, 0x58, 0xbe, 0x5f, 0x20, 0x52, 0xbe,
  0x42, 0x31, 0xb8, 0xbd, 0xd4, 0x54, 0x0e, 0x3e, 0xec, 0x28, 0x34, 0x3e,
  0x90, 0x4f, 0xa0, 0x3d, 0xc9, 0x79, 0x6b, 0x3d, 0xdb, 0x00, 0x6d, 0xbe,
  0x76, 0x58, 0x91, 0xbe, 0x6b, 0x93, 0x9c, 0x3d, 0x9e, 0x2f, 0xd6, 0xbd,
  0xfe, 0x3d, 0x6c, 0xbe, 0xec, 0x0b, 0x48, 0xbc, 0x5f, 0x78, 0xc9, 0xba,
  0x4f, 0xc5, 0xa0, 0xbc, 0x9b, 0x6e, 0xdf, 0xbd, 0xb6, 0x88, 0x8c, 0x3c,
  0x9c, 0x43, 0x42, 0xbe, 0x89, 0x9f, 0x85, 0xbd, 0x7c, 0x91, 0x2e, 0x3d,
  0xed, 0xc6, 0x4d, 0x3e, 0x31, 0x2e, 0x84, 0x3e, 0xbc, 0xde, 0x46, 0xbc,
  0xe6, 0x6f, 0xce, 0xbd, 0x70, 0x47, 0x10, 0x3c, 0x8a, 0x08, 0x1c, 0xbb,
  0x70, 0x37, 0xc3, 0x3d, 0x44, 0x77, 0x1e, 0xbe, 0xc7, 0xa5, 0x8d, 0x3d,
  0xb1, 0xb4, 0x4c, 0x3e, 0xe4, 0xc0, 0x4b, 0xbe, 0x10, 0x96, 0x13, 0xbe,
  0xe2, 0x6b, 0x30, 0xbd, 0xe5, 0x67, 0x42, 0x3e, 0xf8, 0xb6, 0x94, 0xbc,
  0x3d, 0x25, 0x5d, 0x3e, 0x7d, 0x38, 0x96, 0x3e, 0x96, 0xa4, 0x03, 0x3e,
  0x26, 0x5a, 0xbc, 0xbe, 0xe1, 0xab, 0x24, 0x3e, 0x5d, 0x5a, 0xb8, 0xba,
  0x99, 0xa3, 0xd1, 0x3e, 0xcf, 0xea, 0x4b, 0xbc, 0x83, 0x4d, 0x8c, 0xbb,
  0xe0, 0xbb, 0x4d, 0xbe, 0x05, 0x11, 0x13, 0x3e, 0x12, 0x7c, 0xde, 0xbd,
  0x89, 0xfa, 0xc9, 0x3b, 0x3c, 0xd8, 0xc5, 0xbe, 0x73, 0xf1, 0x2f, 0xbd,
  0x82, 0x18, 0xac, 0xbd, 0xc2, 0x1e, 0x05, 0xbd, 0x34, 0x4e, 0x8a, 0x3e,
  0x8f, 0x8f, 0xca, 0x3d, 0xb4, 0x60, 0x99, 0xbe, 0x89, 0xc0, 0x1b, 0xbb,
  0xd1, 0x2e, 0x46, 0x3e, 0x6a, 0x5a, 0xed, 0xba, 0x29, 0xb8, 0x42, 0xba,
  0x4a, 0xea, 0x0c, 0xbe, 0x62, 0x01, 0xbb, 0xbe, 0xcc, 0xdc, 0x2b, 0xbe,
  0x69, 0x93, 0x42, 0x3d, 0xd6, 0xa9, 0xa6, 0x3e, 0x32, 0x00, 0xd7, 0x3c,
  0x91, 0xa6, 0xb2, 0xbe, 0x51, 0x99, 0x3f, 0x3d, 0x39, 0xd5, 0xcc, 0x3d,
  0x3e, 0x8d, 0xcc, 0x3e, 0xfd, 0x08, 0x39, 0xbe, 0x49, 0x32, 0xe5, 0xbb,
  0x76, 0x3f, 0xe4, 0xbd, 0xd4, 0x7e, 0xa7, 0xbe, 0x86, 0xdd, 0x10, 0xbe,
  0xbb, 0x0a, 0xa4, 0x3e, 0xab, 0xd3, 0x0e, 0x3d, 0xeb, 0xc5, 0x81, 0xbe,
  0xdd, 0xdc, 0xaf, 0x3b, 0x1b, 0x77, 0xad, 0x3e, 0x06, 0x07, 0x4d, 0xbb,
  0xed, 0xda, 0xcd, 0x3e, 0x7b, 0x96, 0xa3, 0x3b, 0x35, 0x3a, 0x54, 0xbe,
  0x28, 0x99, 0x4e, 0x3d, 0x1e, 0x4a, 0x31, 0x3e, 0x7b, 0x88, 0x5a, 0xbe,
  0x6c, 0x57, 0xb7, 0x3e, 0x17, 0x1b, 0x76, 0x3e, 0x7d, 0x02, 0x9c, 0x3d,
  0xc8, 0x91, 0x86, 0xbe, 0x73, 0x8f, 0x80, 0x3e, 0x97, 0x95, 0x4e, 0x3b,
  0x64, 0x33, 0x61, 0x3d, 0x71, 0x32, 0x2b, 0x3e, 0xba, 0x80, 0x35, 0xbd,
  0xe9, 0x28, 0x8b, 0xbd, 0x98, 0xb5, 0x6f, 0x3e, 0x79, 0x2a, 0x1b, 0x3e,
  0xc1, 0x96, 0x0e, 0xbe, 0x1f, 0xd4, 0x83, 0x3e, 0xe1, 0xbd, 0x99, 0x3d,
  0xf5, 0x37, 0x6e, 0xbe, 0xca, 0x22, 0x9f, 0x3e, 0x72, 0xf9, 0x0f, 0xba,
  0x37, 0x01, 0xf9, 0x3d, 0x3a, 0x60, 0x50, 0x3a, 0x3b, 0x11, 0x0c, 0x3c,
  0xf0, 0xbd, 0x6d, 0x3e, 0xbc, 0x2c, 0x14, 0x3e, 0xb7, 0x05, 0x23, 0xbe,
  0x9f, 0x2d, 0x2f, 0x3e, 0x37, 0x47, 0x8e, 0x3e, 0x78, 0x0c, 0x66, 0xbe,
  0xd7, 0xcf, 0x12, 0x3e, 0xaa, 0x59, 0x90, 0x3e, 0xfe, 0xac, 0xf1, 0x3d,
  0x6a, 0x65, 0x27, 0xbe, 0xde, 0xc8, 0x83, 0xbe, 0xc4, 0xf6, 0xff, 0xff,
  0xc8, 0xf6, 0xff, 0xff, 0x0f, 0x00, 0x00, 0x00, 0x4d, 0x4c, 0x49, 0x52,
  0x20, 0x43, 0x6f, 0x6e, 0x76, 0x65, 0x72, 0x74, 0x65, 0x64, 0x2e, 0x00,
  0x01, 0x00, 0x00, 0x00, 0x14, 0x00, 0x00, 0x00, 0x00, 0x00, 0x0e, 0x00,
  0x18, 0x00, 0x14, 0x00, 0x10, 0x00, 0x0c, 0x00, 0x08, 0x00, 0x04, 0x00,
  0x0e, 0x00, 0x00, 0x00, 0x14, 0x00, 0x00, 0x00, 0x1c, 0x00, 0x00, 0x00,
  0x68, 0x01, 0x00, 0x00, 0x6c, 0x01, 0x00, 0x00, 0x70, 0x01, 0x00, 0x00,
  0x04, 0x00, 0x00, 0x00, 0x6d, 0x61, 0x69, 0x6e, 0x00, 0x00, 0x00, 0x00,
  0x05, 0x00, 0x00, 0x00, 0x10, 0x01, 0x00, 0x00, 0xbc, 0x00, 0x00, 0x00,
  0x84, 0x00, 0x00, 0x00, 0x50, 0x00, 0x00, 0x00, 0x14, 0x00, 0x00, 0x00,
  0x00, 0x00, 0x0e, 0x00, 0x1a, 0x00, 0x14, 0x00, 0x10, 0x00, 0x0c, 0x00,
  0x0b, 0x00, 0x04, 0x00, 0x0e, 0x00, 0x00, 0x00, 0x1c, 0x00, 0x00, 0x00,
  0x00, 0x00, 0x00, 0x09, 0x1c, 0x00, 0x00, 0x00, 0x20, 0x00, 0x00, 0x00,
  0x01, 0x00, 0x00, 0x00, 0x00, 0x00, 0x06, 0x00, 0x08, 0x00, 0x04, 0x00,
  0x06, 0x00, 0x00, 0x00, 0x00, 0x00, 0x80, 0x3f, 0x01, 0x00, 0x00, 0x00,
  0x0d, 0x00, 0x00, 0x00, 0x01, 0x00, 0x00, 0x00, 0x0c, 0x00, 0x00, 0x00,
  0x5a, 0xff, 0xff, 0xff, 0x10, 0x00, 0x00, 0x00, 0x00, 0x00, 0x00, 0x08,
  0x0c, 0x00, 0x00, 0x00, 0x10, 0x00, 0x00, 0x00, 0x90, 0xf7, 0xff, 0xff,
  0x01, 0x00, 0x00, 0x00, 0x0c, 0x00, 0x00, 0x00, 0x03, 0x00, 0x00, 0x00,
  0x0b, 0x00, 0x00, 0x00, 0x04, 0x00, 0x00, 0x00, 0x03, 0x00, 0x00, 0x00,
  0x8a, 0xff, 0xff, 0xff, 0x10, 0x00, 0x00, 0x00, 0x00, 0x00, 0x00, 0x08,
  0x10, 0x00, 0x00, 0x00, 0x14, 0x00, 0x00, 0x00, 0x7a, 0xff, 0xff, 0xff,
  0x00, 0x00, 0x00, 0x01, 0x01, 0x00, 0x00, 0x00, 0x0b, 0x00, 0x00, 0x00,
  0x03, 0x00, 0x00, 0x00, 0x0a, 0x00, 0x00, 0x00, 0x06, 0x00, 0x00, 0x00,
  0x07, 0x00, 0x00, 0x00, 0xbe, 0xff, 0xff, 0xff, 0x1c, 0x00, 0x00, 0x00,
  0x00, 0x00, 0x00, 0x08, 0x1c, 0x00, 0x00, 0x00, 0x20, 0x00, 0x00, 0x00,
  0x0c, 0x00, 0x08, 0x00, 0x07, 0x00, 0x00, 0x00, 0x00, 0x00, 0x06, 0x00,
  0x0c, 0x00, 0x00, 0x00, 0x00, 0x00, 0x01, 0x01, 0x01, 0x00, 0x00, 0x00,
  0x0a, 0x00, 0x00, 0x00, 0x03, 0x00, 0x00, 0x00, 0x09, 0x00, 0x00, 0x00,
  0x08, 0x00, 0x00, 0x00, 0x05, 0x00, 0x00, 0x00, 0x00, 0x00, 0x0e, 0x00,
  0x16, 0x00, 0x00, 0x00, 0x10, 0x00, 0x0c, 0x00, 0x0b, 0x00, 0x04, 0x00,
  0x0e, 0x00, 0x00, 0x00, 0x18, 0x00, 0x00, 0x00, 0x00, 0x00, 0x00, 0x08,
  0x18, 0x00, 0x00, 0x00, 0x1c, 0x00, 0x00, 0x00, 0x00, 0x00, 0x06, 0x00,
  0x08, 0x00, 0x07, 0x00, 0x06, 0x00, 0x00, 0x00, 0x00, 0x00, 0x00, 0x01,
  0x01, 0x00, 0x00, 0x00, 0x09, 0x00, 0x00, 0x00, 0x03, 0x00, 0x00, 0x00,
  0x00, 0x00, 0x00, 0x00, 0x01, 0x00, 0x00, 0x00, 0x02, 0x00, 0x00, 0x00,
  0x01, 0x00, 0x00, 0x00, 0x0d, 0x00, 0x00, 0x00, 0x01, 0x00, 0x00, 0x00,
  0x00, 0x00, 0x00, 0x00, 0x0e, 0x00, 0x00, 0x00, 0x58, 0x07, 0x00, 0x00,
  0x00, 0x07, 0x00, 0x00, 0xac, 0x06, 0x00, 0x00, 0x70, 0x06, 0x00, 0x00,
  0x30, 0x06, 0x00, 0x00, 0xf4, 0x05, 0x00, 0x00, 0xb4, 0x05, 0x00, 0x00,
  0x78, 0x05, 0x00, 0x00, 0x90, 0x03, 0x00, 0x00, 0xe4, 0x02, 0x00, 0x00,
  0xe4, 0x01, 0x00, 0x00, 0xe0, 0x00, 0x00, 0x00, 0x60, 0x00, 0x00, 0x00,
  0x04, 0x00, 0x00, 0x00, 0xf6, 0xf8, 0xff, 0xff, 0x00, 0x00, 0x00, 0x01,
  0x14, 0x00, 0x00, 0x00, 0x1c, 0x00, 0x00, 0x00, 0x1c, 0x00, 0x00, 0x00,
  0x0e, 0x00, 0x00, 0x00, 0x34, 0x00, 0x00, 0x00, 0x02, 0x00, 0x00, 0x00,
  0xff, 0xff, 0xff, 0xff, 0x04, 0x00, 0x00, 0x00, 0xe0, 0xf8, 0xff, 0xff,
  0x1b, 0x00, 0x00, 0x00, 0x53, 0x74, 0x61, 0x74, 0x65, 0x66, 0x75, 0x6c,
  0x50, 0x61, 0x72, 0x74, 0x69, 0x74, 0x69, 0x6f, 0x6e, 0x65, 0x64, 0x43,
  0x61, 0x6c, 0x6c, 0x5f, 0x31, 0x3a, 0x30, 0x00, 0x02, 0x00, 0x00, 0x00,
  0x01, 0x00, 0x00, 0x00, 0x04, 0x00, 0x00, 0x00, 0x4e, 0xf9, 0xff, 0xff,
  0x00, 0x00, 0x00, 0x01, 0x14, 0x00, 0x00, 0x00, 0x1c, 0x00, 0x00, 0x00,
  0x1c, 0x00, 0x00, 0x00, 0x0d, 0x00, 0x00, 0x00, 0x58, 0x00, 0x00, 0x00,
  0x02, 0x00, 0x00, 0x00, 0xff, 0xff, 0xff, 0xff, 0x04, 0x00, 0x00, 0x00,
  0x38, 0xf9, 0xff, 0xff, 0x3c, 0x00, 0x00, 0x00, 0x73, 0x65, 0x71, 0x75,
  0x65, 0x6e, 0x74, 0x69, 0x61, 0x6c, 0x5f, 0x31, 0x2f, 0x64, 0x65, 0x6e,
  0x73, 0x65, 0x5f, 0x33, 0x5f, 0x31, 0x2f, 0x4d, 0x61, 0x74, 0x4d, 0x75,
  0x6c, 0x3b, 0x73, 0x65, 0x71, 0x75, 0x65, 0x6e, 0x74, 0x69, 0x61, 0x6c,
  0x5f, 0x31, 0x2f, 0x64, 0x65, 0x6e, 0x73, 0x65, 0x5f, 0x33, 0x5f, 0x31,
  0x2f, 0x42, 0x69, 0x61, 0x73, 0x41, 0x64, 0x64, 0x00, 0x00, 0x00, 0x00,
  0x02, 0x00, 0x00, 0x00, 0x01, 0x00, 0x00, 0x00, 0x04, 0x00, 0x00, 0x00,
  0xca, 0xf9, 0xff, 0xff, 0x00, 0x00, 0x00, 0x01, 0x14, 0x00, 0x00, 0x00,
  0x1c, 0x00, 0x00, 0x00, 0x1c, 0x00, 0x00, 0x00, 0x0c, 0x00, 0x00, 0x00,
  0xdc, 0x00, 0x00, 0x00, 0x02, 0x00, 0x00, 0x00, 0xff, 0xff, 0xff, 0xff,
  0x10, 0x00, 0x00, 0x00, 0xb4, 0xf9, 0xff, 0xff, 0xc2, 0x00, 0x00, 0x00,
  0x73, 0x65, 0x71, 0x75, 0x65, 0x6e, 0x74, 0x69, 0x61, 0x6c, 0x5f, 0x31,
  0x2f, 0x62, 0x61, 0x74, 0x63, 0x68, 0x5f, 0x6e, 0x6f, 0x72, 0x6d, 0x61,
  0x6c, 0x69, 0x7a, 0x61, 0x74, 0x69, 0x6f, 0x6e, 0x5f, 0x31, 0x5f, 0x32,
  0x2f, 0x62, 0x61, 0x74, 0x63, 0x68, 0x6e, 0x6f, 0x72, 0x6d, 0x2f, 0x6d,
  0x75, 0x6c, 0x5f, 0x31, 0x3b, 0x73, 0x65, 0x71, 0x75, 0x65, 0x6e, 0x74,
  0x69, 0x61, 0x6c, 0x5f, 0x31, 0x2f, 0x62, 0x61, 0x74, 0x63, 0x68, 0x5f,
  0x6e, 0x6f, 0x72, 0x6d, 0x61, 0x6c, 0x69, 0x7a, 0x61, 0x74, 0x69, 0x6f,
  0x6e, 0x5f, 0x31, 0x5f, 0x32, 0x2f, 0x62, 0x61, 0x74, 0x63, 0x68, 0x6e,
  0x6f, 0x72, 0x6d, 0x2f, 0x61, 0x64, 0x64, 0x5f, 0x31, 0x3b, 0x73, 0x65,
  0x71, 0x75, 0x65, 0x6e, 0x74, 0x69, 0x61, 0x6c, 0x5f, 0x31, 0x2f, 0x64,
  0x65, 0x6e, 0x73, 0x65, 0x5f, 0x32, 0x5f, 0x31, 0x2f, 0x4d, 0x61, 0x74,
  0x4d, 0x75, 0x6c, 0x3b, 0x73, 0x65, 0x71, 0x75, 0x65, 0x6e, 0x74, 0x69,
  0x61, 0x6c, 0x5f, 0x31, 0x2f, 0x64, 0x65, 0x6e, 0x73, 0x65, 0x5f, 0x32,
  0x5f, 0x31, 0x2f, 0x52, 0x65, 0x6c, 0x75, 0x3b, 0x73, 0x65, 0x71, 0x75,
  0x65, 0x6e, 0x74, 0x69, 0x61, 0x6c, 0x5f, 0x31, 0x2f, 0x64, 0x65, 0x6e,
  0x73, 0x65, 0x5f, 0x32, 0x5f, 0x31, 0x2f, 0x42, 0x69, 0x61, 0x73, 0x41,
  0x64, 0x64, 0x00, 0x00, 0x02, 0x00, 0x00, 0x00, 0x01, 0x00, 0x00, 0x00,
  0x10, 0x00, 0x00, 0x00, 0xca, 0xfa, 0xff, 0xff, 0x00, 0x00, 0x00, 0x01,
  0x14, 0x00, 0x00, 0x00, 0x1c, 0x00, 0x00, 0x00, 0x1c, 0x00, 0x00, 0x00,
  0x0b, 0x00, 0x00, 0x00, 0xd8, 0x00, 0x00, 0x00, 0x02, 0x00, 0x00, 0x00,
  0xff, 0xff, 0xff, 0xff, 0x20, 0x00, 0x00, 0x00, 0xb4, 0xfa, 0xff, 0xff,
  0xbe, 0x00, 0x00, 0x00, 0x73, 0x65, 0x71, 0x75, 0x65, 0x6e, 0x74, 0x69,
  0x61, 0x6c, 0x5f, 0x31, 0x2f, 0x62, 0x61, 0x74, 0x63, 0x68, 0x5f, 0x6e,
  0x6f, 0x72, 0x6d, 0x61, 0x6c, 0x69, 0x7a, 0x61, 0x74, 0x69, 0x6f, 0x6e,
  0x5f, 0x31, 0x2f, 0x62, 0x61, 0x74, 0x63, 0x68, 0x6e, 0x6f, 0x72, 0x6d,
  0x2f, 0x6d, 0x75, 0x6c, 0x5f, 0x31, 0x3b, 0x73, 0x65, 0x71, 0x75, 0x65,
  0x6e, 0x74, 0x69, 0x61, 0x6c, 0x5f, 0x31, 0x2f, 0x62, 0x61, 0x74, 0x63,
  0x68, 0x5f, 0x6e, 0x6f, 0x72, 0x6d, 0x61, 0x6c, 0x69, 0x7a, 0x61, 0x74,
  0x69, 0x6f, 0x6e, 0x5f, 0x31, 0x2f, 0x62, 0x61, 0x74, 0x63, 0x68, 0x6e,
  0x6f, 0x72, 0x6d, 0x2f, 0x61, 0x64, 0x64, 0x5f, 0x31, 0x3b, 0x73, 0x65,
  0x71, 0x75, 0x65, 0x6e, 0x74, 0x69, 0x61, 0x6c, 0x5f, 0x31, 0x2f, 0x64,
  0x65, 0x6e, 0x73, 0x65, 0x5f, 0x31, 0x5f, 0x32, 0x2f, 0x4d, 0x61, 0x74,
  0x4d, 0x75, 0x6c, 0x3b, 0x73, 0x65, 0x71, 0x75, 0x65, 0x6e, 0x74, 0x69,
  0x61, 0x6c, 0x5f, 0x31, 0x2f, 0x64, 0x65, 0x6e, 0x73, 0x65, 0x5f, 0x31,
  0x5f, 0x32, 0x2f, 0x52, 0x65, 0x6c, 0x75, 0x3b, 0x73, 0x65, 0x71, 0x75,
  0x65, 0x6e, 0x74, 0x69, 0x61, 0x6c, 0x5f, 0x31, 0x2f, 0x64, 0x65, 0x6e,
  0x73, 0x65, 0x5f, 0x31, 0x5f, 0x32, 0x2f, 0x42, 0x69, 0x61, 0x73, 0x41,
  0x64, 0x64, 0x00, 0x00, 0x02, 0x00, 0x00, 0x00, 0x01, 0x00, 0x00, 0x00,
  0x20, 0x00, 0x00, 0x00, 0xc6, 0xfb, 0xff, 0xff, 0x00, 0x00, 0x00, 0x01,
  0x14, 0x00, 0x00, 0x00, 0x1c, 0x00, 0x00, 0x00, 0x1c, 0x00, 0x00, 0x00,
  0x0a, 0x00, 0x00, 0x00, 0x6c, 0x00, 0x00, 0x00, 0x02, 0x00, 0x00, 0x00,
  0xff, 0xff, 0xff, 0xff, 0x40, 0x00, 0x00, 0x00, 0xb0, 0xfb, 0xff, 0xff,
  0x52, 0x00, 0x00, 0x00, 0x73, 0x65, 0x71, 0x75, 0x65, 0x6e, 0x74, 0x69,
  0x61, 0x6c, 0x5f, 0x31, 0x2f, 0x64, 0x65, 0x6e, 0x73, 0x65, 0x5f, 0x31,
  0x2f, 0x4d, 0x61, 0x74, 0x4d, 0x75, 0x6c, 0x3b, 0x73, 0x65, 0x71, 0x75,
  0x65, 0x6e, 0x74, 0x69, 0x61, 0x6c, 0x5f, 0x31, 0x2f, 0x64, 0x65, 0x6e,
  0x73, 0x65, 0x5f, 0x31, 0x2f, 0x52, 0x65, 0x6c, 0x75, 0x3b, 0x73, 0x65,
  0x71, 0x75, 0x65, 0x6e, 0x74, 0x69, 0x61, 0x6c, 0x5f, 0x31, 0x2f, 0x64,
  0x65, 0x6e, 0x73, 0x65, 0x5f, 0x31, 0x2f, 0x42, 0x69, 0x61, 0x73, 0x41,
  0x64, 0x64, 0x00, 0x00, 0x02, 0x00, 0x00, 0x00, 0x01, 0x00, 0x00, 0x00,
  0x40, 0x00, 0x00, 0x00, 0x00, 0x00, 0x16, 0x00, 0x1c, 0x00, 0x18, 0x00,
  0x17, 0x00, 0x10, 0x00, 0x0c, 0x00, 0x08, 0x00, 0x00, 0x00, 0x00, 0x00,
  0x00, 0x00, 0x07, 0x00, 0x16, 0x00, 0x00, 0x00, 0x00, 0x00, 0x00, 0x01,
  0x20, 0x00, 0x00, 0x00, 0xb4, 0x01, 0x00, 0x00, 0x09, 0x00, 0x00, 0x00,
  0x00, 0x00, 0x00, 0x09, 0xc0, 0x01, 0x00, 0x00, 0x0c, 0x00, 0x0c, 0x00,
  0x00, 0x00, 0x00, 0x00, 0x08, 0x00, 0x04, 0x00, 0x0c, 0x00, 0x00, 0x00,
  0x08, 0x00, 0x00, 0x00, 0x0c, 0x01, 0x00, 0x00, 0x20, 0x00, 0x00, 0x00,
  0x00, 0x00, 0x00, 0x00, 0x00, 0x00, 0x00, 0x00, 0x00, 0x00, 0x00, 0x00,
  0x00, 0x00, 0x00, 0x00, 0x00, 0x00, 0x00, 0x00, 0x00, 0x00, 0x00, 0x00,
  0x00, 0x00, 0x00, 0x00, 0x00, 0x00, 0x00, 0x00, 0x00, 0x00, 0x00, 0x00,
  0x00, 0x00, 0x00, 0x00, 0x00, 0x00, 0x00, 0x00, 0x00, 0x00, 0x00, 0x00,
  0x00, 0x00, 0x00, 0x00, 0x00, 0x00, 0x00, 0x00, 0x00, 0x00, 0x00, 0x00,
  0x00, 0x00, 0x00, 0x00, 0x00, 0x00, 0x00, 0x00, 0x00, 0x00, 0x00, 0x00,
  0x00, 0x00, 0x00, 0x00, 0x00, 0x00, 0x00, 0x00, 0x00, 0x00, 0x00, 0x00,
  0x00, 0x00, 0x00, 0x00, 0x00, 0x00, 0x00, 0x00, 0x00, 0x00, 0x00, 0x00,
  0x00, 0x00, 0x00, 0x00, 0x00, 0x00, 0x00, 0x00, 0x00, 0x00, 0x00, 0x00,
  0x00, 0x00, 0x00, 0x00, 0x00, 0x00, 0x00, 0x00, 0x00, 0x00, 0x00, 0x00,
  0x00, 0x00, 0x00, 0x00, 0x00, 0x00, 0x00, 0x00, 0x00, 0x00, 0x00, 0x00,
  0x00, 0x00, 0x00, 0x00, 0x00, 0x00, 0x00, 0x00, 0x00, 0x00, 0x00, 0x00,
  0x00, 0x00, 0x00, 0x00, 0x00, 0x00, 0x00, 0x00, 0x00, 0x00, 0x00, 0x00,
  0x00, 0x00, 0x00, 0x00, 0x00, 0x00, 0x00, 0x00, 0x00, 0x00, 0x00, 0x00,
  0x00, 0x00, 0x00, 0x00, 0x00, 0x00, 0x00, 0x00, 0x00, 0x00, 0x00, 0x00,
  0x00, 0x00, 0x00, 0x00, 0x00, 0x00, 0x00, 0x00, 0x00, 0x00, 0x00, 0x00,
  0x00, 0x00, 0x00, 0x00, 0x00, 0x00, 0x00, 0x00, 0x00, 0x00, 0x00, 0x00,
  0x00, 0x00, 0x00, 0x00, 0x00, 0x00, 0x00, 0x00, 0x00, 0x00, 0x00, 0x00,
  0x00, 0x00, 0x00, 0x00, 0x00, 0x00, 0x00, 0x00, 0x00, 0x00, 0x00, 0x00,
  0x00, 0x00, 0x00, 0x00, 0x00, 0x00, 0x00, 0x00, 0x00, 0x00, 0x00, 0x00,
  0x00, 0x00, 0x00, 0x00, 0x00, 0x00, 0x00, 0x00, 0x00, 0x00, 0x00, 0x00,
  0x00, 0x00, 0x00, 0x00, 0x00, 0x00, 0x00, 0x00, 0x20, 0x00, 0x00, 0x00,
  0x09, 0x20, 0x01, 0x3e, 0x30, 0x1e, 0xbc, 0x3d, 0x45, 0xed, 0x89, 0x3d,
  0x67, 0x19, 0xa3, 0x3d, 0x0a, 0xce, 0xc4, 0x3d, 0x6b, 0xd7, 0x3b, 0x3d,
  0x07, 0x40, 0x92, 0x3d, 0x9e, 0x40, 0xc0, 0x3d, 0x12, 0xae, 0xa9, 0x3d,
  0xd7, 0x21, 0x1f, 0x3e, 0x8b, 0x39, 0xb9, 0x3d, 0x39, 0x76, 0x06, 0x3d,
  0x65, 0x6f, 0x69, 0x3d, 0xf8, 0x49, 0x41, 0x3d, 0x13, 0x9a, 0x0e, 0x3d,
  0xb8, 0xf3, 0x5b, 0x3d, 0x62, 0x95, 0xca, 0x3d, 0xb2, 0x37, 0x97, 0x3d,
  0x44, 0xc7, 0x9b, 0x3d, 0xaa, 0xf3, 0xf0, 0x3c, 0x3a, 0x88, 0x32, 0x3d,
  0xd3, 0x57, 0xbe, 0x3d, 0x04, 0x4b, 0x3b, 0x3d, 0xed, 0xb3, 0x61, 0x3e,
  0x12, 0x3f, 0xe1, 0x3d, 0x86, 0x6d, 0x91, 0x3d, 0x85, 0xa0, 0x2f, 0x3d,
  0xe3, 0x63, 0x91, 0x3d, 0xd6, 0x4b, 0x48, 0x3d, 0x66, 0xbe, 0xf7, 0x3c,
  0x6f, 0x04, 0xb6, 0x3d, 0x21, 0x18, 0xa3, 0x3d, 0x11, 0x00, 0x00, 0x00,
  0x74, 0x66, 0x6c, 0x2e, 0x70, 0x73, 0x65, 0x75, 0x64, 0x6f, 0x5f, 0x71,
  0x63, 0x6f, 0x6e, 0x73, 0x74, 0x00, 0x00, 0x00, 0x02, 0x00, 0x00, 0x00,
  0x20, 0x00, 0x00, 0x00, 0x40, 0x00, 0x00, 0x00, 0xa6, 0xfe, 0xff, 0xff,
  0x00, 0x00, 0x00, 0x01, 0x10, 0x00, 0x00, 0x00, 0x10, 0x00, 0x00, 0x00,
  0x08, 0x00, 0x00, 0x00, 0x1c, 0x00, 0x00, 0x00, 0x2c, 0xfe, 0xff, 0xff,
  0x0f, 0x00, 0x00, 0x00, 0x61, 0x72, 0x69, 0x74, 0x68, 0x2e, 0x63, 0x6f,
  0x6e, 0x73, 0x74, 0x61, 0x6e, 0x74, 0x36, 0x00, 0x01, 0x00, 0x00, 0x00,
  0x10, 0x00, 0x00, 0x00, 0xde, 0xfe, 0xff, 0xff, 0x00, 0x00, 0x00, 0x01,
  0x10, 0x00, 0x00, 0x00, 0x10, 0x00, 0x00, 0x00, 0x07, 0x00, 0x00, 0x00,
  0x1c, 0x00, 0x00, 0x00, 0x64, 0xfe, 0xff, 0xff, 0x0f, 0x00, 0x00, 0x00,
  0x61, 0x72, 0x69, 0x74, 0x68, 0x2e, 0x63, 0x6f, 0x6e, 0x73, 0x74, 0x61,
  0x6e, 0x74, 0x35, 0x00, 0x02, 0x00, 0x00, 0x00, 0x10, 0x00, 0x00, 0x00,
  0x20, 0x00, 0x00, 0x00, 0x1a, 0xff, 0xff, 0xff, 0x00, 0x00, 0x00, 0x01,
  0x10, 0x00, 0x00, 0x00, 0x10, 0x00, 0x00, 0x00, 0x06, 0x00, 0x00, 0x00,
  0x1c, 0x00, 0x00, 0x00, 0xa0, 0xfe, 0xff, 0xff, 0x0f, 0x00, 0x00, 0x00,
  0x61, 0x72, 0x69, 0x74, 0x68, 0x2e, 0x63, 0x6f, 0x6e, 0x73, 0x74, 0x61,
  0x6e, 0x74, 0x34, 0x00, 0x01, 0x00, 0x00, 0x00, 0x20, 0x00, 0x00, 0x00,
  0x52, 0xff, 0xff, 0xff, 0x00, 0x00, 0x00, 0x01, 0x10, 0x00, 0x00, 0x00,
  0x10, 0x00, 0x00, 0x00, 0x05, 0x00, 0x00, 0x00, 0x1c, 0x00, 0x00, 0x00,
  0xd8, 0xfe, 0xff, 0xff, 0x0f, 0x00, 0x00, 0x00, 0x61, 0x72, 0x69, 0x74,
  0x68, 0x2e, 0x63, 0x6f, 0x6e, 0x73, 0x74, 0x61, 0x6e, 0x74, 0x33, 0x00,
  0x02, 0x00, 0x00, 0x00, 0x04, 0x00, 0x00, 0x00, 0x10, 0x00, 0x00, 0x00,
  0x8e, 0xff, 0xff, 0xff, 0x00, 0x00, 0x00, 0x01, 0x10, 0x00, 0x00, 0x00,
  0x10, 0x00, 0x00, 0x00, 0x04, 0x00, 0x00, 0x00, 0x1c, 0x00, 0x00, 0x00,
  0x14, 0xff, 0xff, 0xff, 0x0f, 0x00, 0x00, 0x00, 0x61, 0x72, 0x69, 0x74,
  0x68, 0x2e, 0x63, 0x6f, 0x6e, 0x73, 0x74, 0x61, 0x6e, 0x74, 0x32, 0x00,
  0x01, 0x00, 0x00, 0x00, 0x04, 0x00, 0x00, 0x00, 0xc6, 0xff, 0xff, 0xff,
  0x00, 0x00, 0x00, 0x01, 0x10, 0x00, 0x00, 0x00, 0x10, 0x00, 0x00, 0x00,
  0x03, 0x00, 0x00, 0x00, 0x1c, 0x00, 0x00, 0x00, 0x4c, 0xff, 0xff, 0xff,
  0x0f, 0x00, 0x00, 0x00, 0x61, 0x72, 0x69, 0x74, 0x68, 0x2e, 0x63, 0x6f,
  0x6e, 0x73, 0x74, 0x61, 0x6e, 0x74, 0x31, 0x00, 0x01, 0x00, 0x00, 0x00,
  0x40, 0x00, 0x00, 0x00, 0x00, 0x00, 0x16, 0x00, 0x18, 0x00, 0x14, 0x00,
  0x00, 0x00, 0x10, 0x00, 0x0c, 0x00, 0x08, 0x00, 0x00, 0x00, 0x00, 0x00,
  0x00, 0x00, 0x07, 0x00, 0x16, 0x00, 0x00, 0x00, 0x00, 0x00, 0x00, 0x01,
  0x10, 0x00, 0x00, 0x00, 0x10, 0x00, 0x00, 0x00, 0x02, 0x00, 0x00, 0x00,
  0x1c, 0x00, 0x00, 0x00, 0x9c, 0xff, 0xff, 0xff, 0x0e, 0x00, 0x00, 0x00,
  0x61, 0x72, 0x69, 0x74, 0x68, 0x2e, 0x63, 0x6f, 0x6e, 0x73, 0x74, 0x61,
  0x6e, 0x74, 0x00, 0x00, 0x02, 0x00, 0x00, 0x00, 0x40, 0x00, 0x00, 0x00,
  0x03, 0x00, 0x00, 0x00, 0x00, 0x00, 0x16, 0x00, 0x1c, 0x00, 0x18, 0x00,
  0x00, 0x00, 0x14, 0x00, 0x10, 0x00, 0x0c, 0x00, 0x00, 0x00, 0x00, 0x00,
  0x08, 0x00, 0x07, 0x00, 0x16, 0x00, 0x00, 0x00, 0x00, 0x00, 0x00, 0x01,
  0x14, 0x00, 0x00, 0x00, 0x20, 0x00, 0x00, 0x00, 0x20, 0x00, 0x00, 0x00,
  0x01, 0x00, 0x00, 0x00, 0x3c, 0x00, 0x00, 0x00, 0x02, 0x00, 0x00, 0x00,
  0xff, 0xff, 0xff, 0xff, 0x03, 0x00, 0x00, 0x00, 0x04, 0x00, 0x04, 0x00,
  0x04, 0x00, 0x00, 0x00, 0x1d, 0x00, 0x00, 0x00, 0x73, 0x65, 0x72, 0x76,
  0x69, 0x6e, 0x67, 0x5f, 0x64, 0x65, 0x66, 0x61, 0x75, 0x6c, 0x74, 0x5f,
  0x69, 0x6e, 0x70, 0x75, 0x74, 0x5f, 0x6c, 0x61, 0x79, 0x65, 0x72, 0x3a,
  0x30, 0x00, 0x00, 0x00, 0x02, 0x00, 0x00, 0x00, 0x01, 0x00, 0x00, 0x00,
  0x03, 0x00, 0x00, 0x00, 0x02, 0x00, 0x00, 0x00, 0x2c, 0x00, 0x00, 0x00,
  0x10, 0x00, 0x00, 0x00, 0x0c, 0x00, 0x0c, 0x00, 0x0b, 0x00, 0x00, 0x00,
  0x00, 0x00, 0x04, 0x00, 0x0c, 0x00, 0x00, 0x00, 0x19, 0x00, 0x00, 0x00,
  0x00, 0x00, 0x00, 0x19, 0x0c, 0x00, 0x10, 0x00, 0x0f, 0x00, 0x00, 0x00,
  0x08, 0x00, 0x04, 0x00, 0x0c, 0x00, 0x00, 0x00, 0x09, 0x00, 0x00, 0x00,
  0x0c, 0x00, 0x00, 0x00, 0x00, 0x00, 0x00, 0x09
};

const size_t model_len = sizeof(model) / sizeof(model[0]);
